{
  "version": "1.0",
  "truncation": null,
  "padding": null,
  "added_tokens": [
    {
      "id": 0,
      "content": "<bos>",
      "single_word": false,
      "lstrip": false,
      "rstrip": false,
      "normalized": false,
      "special": true
    },
    {
      "id": 1,
      "content": "<eos>",
      "single_word": false,
      "lstrip": false,
      "rstrip": false,
      "normalized": false,
      "special": true
    }
  ],
  "normalizer": null,
  "pre_tokenizer": {
    "type": "ByteLevel",
    "add_prefix_space": true,
    "trim_offsets": true,
    "use_regex": true
  },
  "post_processor": {
    "type": "TemplateProcessing",
    "single": [
      {
        "SpecialToken": {
          "id": "<bos>",
          "type_id": 0
        }
      },
      {
        "Sequence": {
          "id": "A",
          "type_id": 0
        }
      },
      {
        "SpecialToken": {
          "id": "<eos>",
          "type_id": 0
        }
      }
    ],
    "pair": [
      {
        "Sequence": {
          "id": "A",
          "type_id": 0
        }
      },
      {
        "Sequence": {
          "id": "B",
          "type_id": 1
        }
      }
    ],
    "special_tokens": {
      "<bos>": {
        "id": "<bos>",
        "ids": [
          0
        ],
        "tokens": [
          "<bos>"
        ]
      },
      "<eos>": {
        "id": "<eos>",
        "ids": [
          1
        ],
        "tokens": [
          "<eos>"
        ]
      }
    }
  },
  "decoder": null,
  "model": {
    "type": "BPE",
    "dropout": null,
    "unk_token": null,
    "continuing_subword_prefix": null,
    "end_of_word_suffix": null,
    "fuse_unk": false,
    "byte_fallback": false,
    "ignore_merges": false,
    "vocab": {
      "<bos>": 0,
      "<eos>": 1,
      "!": 2,
      "\"": 3,
      "#": 4,
      "$": 5,
      "%": 6,
      "&": 7,
      "'": 8,
      "(": 9,
      ")": 10,
      "*": 11,
      "+": 12,
      ",": 13,
      "-": 14,
      ".": 15,
      "/": 16,
      "0": 17,
      "1": 18,
      "2": 19,
      "3": 20,
      "4": 21,
      "5": 22,
      "6": 23,
      "7": 24,
      "8": 25,
      "9": 26,
      ":": 27,
      ";": 28,
      "<": 29,
      "=": 30,
      ">": 31,
      "?": 32,
      "@": 33,
      "A": 34,
      "B": 35,
      "C": 36,
      "D": 37,
      "E": 38,
      "F": 39,
      "G": 40,
      "H": 41,
      "I": 42,
      "J": 43,
      "K": 44,
      "L": 45,
      "M": 46,
      "N": 47,
      "O": 48,
      "P": 49,
      "Q": 50,
      "R": 51,
      "S": 52,
      "T": 53,
      "U": 54,
      "V": 55,
      "W": 56,
      "X": 57,
      "Y": 58,
      "Z": 59,
      "[": 60,
      "\\": 61,
      "]": 62,
      "^": 63,
      "_": 64,
      "`": 65,
      "a": 66,
      "b": 67,
      "c": 68,
      "d": 69,
      "e": 70,
      "f": 71,
      "g": 72,
      "h": 73,
      "i": 74,
      "j": 75,
      "k": 76,
      "l": 77,
      "m": 78,
      "n": 79,
      "o": 80,
      "p": 81,
      "q": 82,
      "r": 83,
      "s": 84,
      "t": 85,
      "u": 86,
      "v": 87,
      "w": 88,
      "x": 89,
      "y": 90,
      "z": 91,
      "|": 92,
      "}": 93,
      "~": 94,
      "¡": 95,
      "¢": 96,
      "£": 97,
      "¤": 98,
      "¥": 99,
      "¦": 100,
      "§": 101,
      "¨": 102,
      "©": 103,
      "ª": 104,
      "«": 105,
      "¬": 106,
      "®": 107,
      "¯": 108,
      "°": 109,
      "±": 110,
      "²": 111,
      "³": 112,
      "´": 113,
      "µ": 114,
      "¶": 115,
      "·": 116,
      "¸": 117,
      "¹": 118,
      "º": 119,
      "»": 120,
      "¼": 121,
      "½": 122,
      "¾": 123,
      "¿": 124,
      "Â": 125,
      "Ã": 126,
      "Ä": 127,
      "Å": 128,
      "Æ": 129,
      "Ç": 130,
      "È": 131,
      "É": 132,
      "Ê": 133,
      "Ë": 134,
      "Ì": 135,
      "Í": 136,
      "Î": 137,
      "Ï": 138,
      "Ð": 139,
      "Ñ": 140,
      "Ò": 141,
      "Ó": 142,
      "Ô": 143,
      "Õ": 144,
      "Ö": 145,
      "×": 146,
      "Ø": 147,
      "Ù": 148,
      "Ú": 149,
      "Û": 150,
      "Ü": 151,
      "ß": 152,
      "à": 153,
      "á": 154,
      "â": 155,
      "ã": 156,
      "ä": 157,
      "å": 158,
      "æ": 159,
      "ç": 160,
      "è": 161,
      "é": 162,
      "ê": 163,
      "ë": 164,
      "ì": 165,
      "í": 166,
      "ï": 167,
      "ð": 168,
      "ó": 169,
      "ĉ": 170,
      "Ċ": 171,
      "Ġ": 172,
      "Ģ": 173,
      "ģ": 174,
      "Ĥ": 175,
      "ĥ": 176,
      "Ħ": 177,
      "ħ": 178,
      "Ĩ": 179,
      "ĩ": 180,
      "Ī": 181,
      "ī": 182,
      "Ĭ": 183,
      "ĭ": 184,
      "Į": 185,
      "į": 186,
      "İ": 187,
      "ı": 188,
      "Ĳ": 189,
      "ĳ": 190,
      "Ĵ": 191,
      "ĵ": 192,
      "Ķ": 193,
      "ķ": 194,
      "ĸ": 195,
      "Ĺ": 196,
      "ĺ": 197,
      "Ļ": 198,
      "ļ": 199,
      "Ľ": 200,
      "ľ": 201,
      "Ŀ": 202,
      "ŀ": 203,
      "Ł": 204,
      "ł": 205,
      "Ń": 206,
      "Ġt": 207,
      "Ġa": 208,
      "he": 209,
      "in": 210,
      "re": 211,
      "on": 212,
      "Ġthe": 213,
      "er": 214,
      "Ġs": 215,
      "Ġw": 216,
      "at": 217,
      "Ġo": 218,
      "nd": 219,
      "Ġc": 220,
      "it": 221,
      "is": 222,
      "en": 223,
      "es": 224,
      "or": 225,
      "ou": 226,
      "Ġb": 227,
      "ing": 228,
      "Ġf": 229,
      "Ġp": 230,
      "an": 231,
      "ed": 232,
      "al": 233,
      "Ġm": 234,
      "Ġto": 235,
      "Ġof": 236,
      "ar": 237,
      "Ġand": 238,
      "Ġin": 239,
      "Ġd": 240,
      "ic": 241,
      "Ġh": 242,
      "le": 243,
      "Ġth": 244,
      "as": 245,
      "ion": 246,
      "om": 247,
      "âĢ": 248,
      "ll": 249,
      "ent": 250,
      "Ġl": 251,
      "Ġe": 252,
      "Ġre": 253,
      "ve": 254,
      "Ġn": 255,
      "st": 256,
      "ro": 257,
      "ly": 258,
      "Ġy": 259,
      "Ġg": 260,
      "ĠI": 261,
      "ct": 262,
      "Ġbe": 263,
      "ĠT": 264,
      "Ġis": 265,
      "ut": 266,
      "ot": 267,
      "Ġyou": 268,
      "et": 269,
      "id": 270,
      "Ġon": 271,
      "Ġfor": 272,
      "ĠS": 273,
      "ow": 274,
      "ay": 275,
      "se": 276,
      "im": 277,
      "Ġthat": 278,
      "ce": 279,
      "ĠA": 280,
      "ur": 281,
      "ad": 282,
      "ig": 283,
      "Ġu": 284,
      "ver": 285,
      "ĠC": 286,
      "am": 287,
      "ch": 288,
      "ation": 289,
      "Ġst": 290,
      "ith": 291,
      "il": 292,
      "âĢĻ": 293,
      "ol": 294,
      "ir": 295,
      "Ġit": 296,
      "Ġwith": 297,
      "Ġhe": 298,
      "Ġwe": 299,
      "ĠM": 300,
      "Ġas": 301,
      "Ġwh": 302,
      "ra": 303,
      "Ġan": 304,
      "ers": 305,
      "if": 306,
      "ĠB": 307,
      "ill": 308,
      "ĠP": 309,
      "Ġpro": 310,
      "ke": 311,
      "Ġha": 312,
      "Ġare": 313,
      "Ġcon": 314,
      "ter": 315,
      "ld": 316,
      "her": 317,
      "ge": 318,
      "Ġor": 319,
      "ul": 320,
      "ĠW": 321,
      "ess": 322,
      "od": 323,
      "ĠThe": 324,
      "ate": 325,
      "pp": 326,
      "ĠH": 327,
      "Ġde": 328,
      "Ġcom": 329,
      "ment": 330,
      "Ġse": 331,
      "ore": 332,
      "Ġwas": 333,
      "ri": 334,
      "Ġat": 335,
      "ac": 336,
      "us": 337,
      "est": 338,
      "ĠD": 339,
      "ab": 340,
      "igh": 341,
      "Ġex": 342,
      "th": 343,
      "Ġ1": 344,
      "ist": 345,
      "rom": 346,
      "Ġ(": 347,
      "op": 348,
      "Ġsu": 349,
      "ĠF": 350,
      "ant": 351,
      "Ġne": 352,
      "ĠR": 353,
      "ity": 354,
      "qu": 355,
      "ĠâĢ": 356,
      "Ġv": 357,
      "pe": 358,
      "ive": 359,
      "res": 360,
      "Ġnot": 361,
      "Ġ2": 362,
      "Ġhave": 363,
      "Ġr": 364,
      "ain": 365,
      "nt": 366,
      "em": 367,
      "ort": 368,
      "os": 369,
      "ĠL": 370,
      "Ġyour": 371,
      "art": 372,
      "Ġal": 373,
      "Ġthis": 374,
      "um": 375,
      "ust": 376,
      "ĠG": 377,
      "Ġsh": 378,
      "Ġfrom": 379,
      "un": 380,
      "Ġcan": 381,
      "Ġby": 382,
      "ies": 383,
      "oc": 384,
      "el": 385,
      "ĠE": 386,
      "and": 387,
      "ĠN": 388,
      "Ġch": 389,
      "ight": 390,
      "ould": 391,
      "Ġle": 392,
      "ome": 393,
      "ally": 394,
      "out": 395,
      "Ġab": 396,
      "all": 397,
      "ard": 398,
      "red": 399,
      "iv": 400,
      "ie": 401,
      "ud": 402,
      "gh": 403,
      "Ġwor": 404,
      "Ġdo": 405,
      "ĠO": 406,
      "Ġwill": 407,
      "ost": 408,
      "our": 409,
      "Ġpl": 410,
      "te": 411,
      "Ġall": 412,
      "Ġgo": 413,
      "Ġj": 414,
      "rou": 415,
      "ok": 416,
      "Ġk": 417,
      "ak": 418,
      "ide": 419,
      "00": 420,
      "fe": 421,
      "ure": 422,
      "ĠJ": 423,
      "ine": 424,
      "âĢĿ": 425,
      "pt": 426,
      "Ġwhe": 427,
      "Ġme": 428,
      "ast": 429,
      "ag": 430,
      "Ġbut": 431,
      "ther": 432,
      "ear": 433,
      "per": 434,
      "ction": 435,
      "ial": 436,
      "Ġthey": 437,
      "ich": 438,
      "'s": 439,
      "Ġhas": 440,
      "Ġus": 441,
      "pl": 442,
      "ack": 443,
      "Ġad": 444,
      "age": 445,
      "Ġout": 446,
      "ice": 447,
      "Ġtheir": 448,
      "The": 449,
      "one": 450,
      "og": 451,
      "ind": 452,
      "ake": 453,
      "Ġso": 454,
      "Ġup": 455,
      "Ġen": 456,
      "ong": 457,
      "very": 458,
      "Ġcomp": 459,
      "Ġhis": 460,
      "Ġmore": 461,
      "are": 462,
      "ous": 463,
      "ook": 464,
      "Ġmy": 465,
      "ated": 466,
      "ĠU": 467,
      "ime": 468,
      "Ġtr": 469,
      "able": 470,
      "ĠâĢľ": 471,
      "Ġim": 472,
      "Ġone": 473,
      "Ġli": 474,
      "ans": 475,
      "iz": 476,
      "Ġte": 477,
      "ip": 478,
      "cc": 479,
      "Ġwho": 480,
      "ĠTh": 481,
      "ame": 482,
      "ite": 483,
      "Ġcl": 484,
      "Ġabout": 485,
      "ĠIn": 486,
      "orm": 487,
      "Ġwhich": 488,
      "so": 489,
      "Ġman": 490,
      "Ġcont": 491,
      "ance": 492,
      "ions": 493,
      "act": 494,
      "Ġfe": 495,
      "ib": 496,
      "Ġsa": 497,
      "Ġres": 498,
      "Ġinc": 499,
      "Ġint": 500,
      "Ġother": 501,
      "ne": 502,
      "du": 503,
      "Ġapp": 504,
      "au": 505,
      "ations": 506,
      "ue": 507,
      "ĠY": 508,
      "ose": 509,
      "ry": 510,
      "ical": 511,
      "Ġwork": 512,
      "ia": 513,
      "ber": 514,
      "ach": 515,
      "ire": 516,
      "ven": 517,
      "Ġour": 518,
      "ult": 519,
      "ap": 520,
      "Ġper": 521,
      "Ġlike": 522,
      "reat": 523,
      "ĠK": 524,
      "ary": 525,
      "ign": 526,
      "ays": 527,
      "Ġany": 528,
      "ff": 529,
      "ree": 530,
      "Ġsome": 531,
      "Ġtime": 532,
      "Ġdis": 533,
      "Ġhad": 534,
      "ence": 535,
      "Ġqu": 536,
      "ace": 537,
      "Ġwere": 538,
      "Ġalso": 539,
      "Ġthem": 540,
      "ep": 541,
      "Ġthere": 542,
      "ase": 543,
      "ĠIt": 544,
      "Ġun": 545,
      "ass": 546,
      "now": 547,
      "ru": 548,
      "Ġ20": 549,
      "ile": 550,
      "Ġher": 551,
      "Ġget": 552,
      "ress": 553,
      "ck": 554,
      "vel": 555,
      "Ġoff": 556,
      "Ġpart": 557,
      "ub": 558,
      "ick": 559,
      "Ġpe": 560,
      "ail": 561,
      "ount": 562,
      "Ġwhat": 563,
      "Ġag": 564,
      "ark": 565,
      "Ġwould": 566,
      "Ġyear": 567,
      "ings": 568,
      "Ġwhen": 569,
      "form": 570,
      "ĠSt": 571,
      "Ġsp": 572,
      "ough": 573,
      "Ġif": 574,
      "ord": 575,
      "Ġbeen": 576,
      "ition": 577,
      "Ġover": 578,
      "Ġar": 579,
      "ĠCh": 580,
      "Ġ\"": 581,
      "Ġbec": 582,
      "ĠV": 583,
      "ond": 584,
      "erv": 585,
      "ove": 586,
      "ink": 587,
      "Ġimp": 588,
      "Ġthan": 589,
      "av": 590,
      "Ġsc": 591,
      "ents": 592,
      "Ġpre": 593,
      "ors": 594,
      "ens": 595,
      "Ġrec": 596,
      "Ġjust": 597,
      "nder": 598,
      "Ġ3": 599,
      "ople": 600,
      "Ġnew": 601,
      "..": 602,
      "Ġinto": 603,
      "Ġknow": 604,
      "Ġspe": 605,
      "Ġno": 606,
      "Ġro": 607,
      "Ġhow": 608,
      "ild": 609,
      "Ġneed": 610,
      "ood": 611,
      "ish": 612,
      "ĠHe": 613,
      "int": 614,
      "wn": 615,
      "ound": 616,
      "ren": 617,
      "own": 618,
      "irst": 619,
      "Ġpeople": 620,
      "mer": 621,
      "ory": 622,
      "ob": 623,
      "ang": 624,
      "ĠWe": 625,
      "fter": 626,
      "Ġshe": 627,
      "Ġam": 628,
      "ause": 629,
      "Ġmay": 630,
      "Ġacc": 631,
      "rough": 632,
      "Ġits": 633,
      "ater": 634,
      "ov": 635,
      "oy": 636,
      "ade": 637,
      "Ġtw": 638,
      "Ġ-": 639,
      "ual": 640,
      "itt": 641,
      "ces": 642,
      "vers": 643,
      "Ġco": 644,
      "ons": 645,
      "ious": 646,
      "lic": 647,
      "ning": 648,
      "Ġ201": 649,
      "old": 650,
      "Ġdes": 651,
      "we": 652,
      "Ġonly": 653,
      "Ġcomm": 654,
      "Ġbet": 655,
      "Ġsaid": 656,
      "ĠâĢĵ": 657,
      "Ġbl": 658,
      "Ġmost": 659,
      "ates": 660,
      "Ġfirst": 661,
      "ian": 662,
      "ĠThis": 663,
      "lud": 664,
      "Ġ19": 665,
      "ments": 666,
      "ating": 667,
      "Ġmake": 668,
      "Ġcons": 669,
      "Ġind": 670,
      "hed": 671,
      "rent": 672,
      ").": 673,
      "sel": 674,
      "Ġact": 675,
      "Ġthese": 676,
      "lp": 677,
      "Ġwant": 678,
      "Ġunder": 679,
      "Ġpo": 680,
      "ric": 681,
      "Ġem": 682,
      "Ġback": 683,
      "ise": 684,
      "amp": 685,
      "hing": 686,
      "Ġprov": 687,
      "Ġtra": 688,
      "Ġevery": 689,
      "Ġcould": 690,
      "les": 691,
      "tern": 692,
      "ft": 693,
      "ull": 694,
      "Ġthrough": 695,
      "Ġlook": 696,
      "Ġuse": 697,
      "ks": 698,
      "Ġwell": 699,
      "Ġhelp": 700,
      "end": 701,
      "ily": 702,
      "Ġadd": 703,
      "Ġsee": 704,
      "Ġdif": 705,
      "round": 706,
      "ific": 707,
      "fect": 708,
      "fore": 709,
      "'t": 710,
      "Ġtwo": 711,
      "Ġhim": 712,
      "li": 713,
      "ect": 714,
      "Ġbu": 715,
      "Ġ4": 716,
      "Ġvery": 717,
      "uch": 718,
      "Ġrep": 719,
      "Ġfl": 720,
      "ife": 721,
      "Ġinclud": 722,
      "ities": 723,
      "Ġsy": 724,
      "ph": 725,
      "hen": 726,
      "Ġeven": 727,
      "Ġprodu": 728,
      "Ġway": 729,
      "iew": 730,
      "iss": 731,
      "Ġ5": 732,
      "ced": 733,
      "ert": 734,
      "Ġshould": 735,
      "gr": 736,
      "Ġmany": 737,
      "cess": 738,
      "Ġsupp": 739,
      "Ġinv": 740,
      "Ġafter": 741,
      "Ġthen": 742,
      "aw": 743,
      "rit": 744,
      "Ġdid": 745,
      "Ġph": 746,
      "Ġwhere": 747,
      "Ġgood": 748,
      "Ġreg": 749,
      "oss": 750,
      "Ġbecause": 751,
      "ĠRe": 752,
      "erson": 753,
      "row": 754,
      "Ġrel": 755,
      "ful": 756,
      "oll": 757,
      "urn": 758,
      "Ġdec": 759,
      "lect": 760,
      "ĠYou": 761,
      "Ġass": 762,
      "xt": 763,
      "pect": 764,
      "Ġrem": 765,
      "Ġpr": 766,
      "erm": 767,
      "ility": 768,
      ".âĢĿ": 769,
      "Ġyears": 770,
      "ject": 771,
      "Ġstud": 772,
      "ting": 773,
      "Ġplay": 774,
      "Ġright": 775,
      "Ġserv": 776,
      "Ġra": 777,
      "aking": 778,
      "ible": 779,
      "Ġsuch": 780,
      "oth": 781,
      "Ġke": 782,
      "ular": 783,
      "ew": 784,
      "olog": 785,
      "ange": 786,
      "ĠWh": 787,
      "als": 788,
      "Ġnow": 789,
      "Ġev": 790,
      "Ġsm": 791,
      "Ġdon": 792,
      "Ġmuch": 793,
      "Ġdown": 794,
      "Ġthink": 795,
      "ock": 796,
      "iness": 797,
      "ĠAnd": 798,
      "ys": 799,
      "Ġac": 800,
      "Ġatt": 801,
      "Ġown": 802,
      "ower": 803,
      "ont": 804,
      "ath": 805,
      "ational": 806,
      "||": 807,
      "bs": 808,
      "ss": 809,
      "ative": 810,
      "Ġexper": 811,
      "Ġsec": 812,
      "ble": 813,
      "ward": 814,
      "get": 815,
      "Ġ200": 816,
      "other": 817,
      "ased": 818,
      "),": 819,
      "ract": 820,
      "any": 821,
      "stem": 822,
      "ident": 823,
      "day": 824,
      "Ġstart": 825,
      "ell": 826,
      "Ġgu": 827,
      "Ġent": 828,
      "ts": 829,
      "Ġlong": 830,
      "Ġcol": 831,
      "uring": 832,
      "omet": 833,
      "its": 834,
      "Ġgreat": 835,
      "ec": 836,
      "ures": 837,
      "Ġagain": 838,
      "ci": 839,
      "ener": 840,
      "Ġdiffe": 841,
      "Ġthose": 842,
      "Ġdoes": 843,
      "ty": 844,
      "ool": 845,
      "ices": 846,
      "Ġbeing": 847,
      "Ġfin": 848,
      "Th": 849,
      "ually": 850,
      "cial": 851,
      "ĠUn": 852,
      "alth": 853,
      "Ġbus": 854,
      "hip": 855,
      "Ġinst": 856,
      "hes": 857,
      "Ġinte": 858,
      "ics": 859,
      "velop": 860,
      "Ġtake": 861,
      "Ġperson": 862,
      "Ġpres": 863,
      "Ġbefore": 864,
      "ited": 865,
      "Ġhigh": 866,
      "gan": 867,
      "rib": 868,
      "Ġfind": 869,
      "cy": 870,
      "Ġset": 871,
      "ied": 872,
      "ict": 873,
      "ĠIf": 874,
      "Ġend": 875,
      "self": 876,
      "Ġday": 877,
      "Ġins": 878,
      "formation": 879,
      "line": 880,
      "Ġread": 881,
      "Ġmade": 882,
      "up": 883,
      "omm": 884,
      "Ġbest": 885,
      "Ġrequ": 886,
      "ffect": 887,
      "arch": 888,
      "In": 889,
      "ork": 890,
      "Ġsur": 891,
      "Ġbel": 892,
      "air": 893,
      "und": 894,
      "âĢľ": 895,
      "Ġcar": 896,
      "Ġmon": 897,
      "Ġmark": 898,
      "Ġworld": 899,
      "alk": 900,
      "Ġtrans": 901,
      "Ġcall": 902,
      "ience": 903,
      "Ġsim": 904,
      "Ġlife": 905,
      "Ġ6": 906,
      "ĠBut": 907,
      "Ġdisc": 908,
      "Ġhere": 909,
      "Ġshow": 910,
      "Ġsub": 911,
      "ĠAn": 912,
      "Ġsystem": 913,
      "ever": 914,
      "ving": 915,
      "ner": 916,
      "Ġmin": 917,
      "ĠPro": 918,
      "ason": 919,
      "Ġpol": 920,
      "Ġinter": 921,
      "Ġ$": 922,
      "iet": 923,
      "Ġused": 924,
      "rest": 925,
      "Ġhand": 926,
      "ollow": 927,
      "way": 928,
      "led": 929,
      "cept": 930,
      "Ġmed": 931,
      "ness": 932,
      "ues": 933,
      "ather": 934,
      "Ġreally": 935,
      "Ġche": 936,
      "Ġgoing": 937,
      "Ġbr": 938,
      "Ġthough": 939,
      "ank": 940,
      "Ġloc": 941,
      "Ġear": 942,
      "Ġexp": 943,
      "ax": 944,
      "ef": 945,
      "ins": 946,
      "Ġbusiness": 947,
      "Ġfam": 948,
      "ng": 949,
      "Ġdevelop": 950,
      "ix": 951,
      "Ġmod": 952,
      "com": 953,
      "ient": 954,
      "Ġwhile": 955,
      "ween": 956,
      "Ġsomet": 957,
      "ives": 958,
      "Ġnum": 959,
      "io": 960,
      "imes": 961,
      "Ġdifferent": 962,
      "Ġreal": 963,
      "Ġop": 964,
      "Ġdet": 965,
      "ave": 966,
      "chool": 967,
      "ince": 968,
      "ms": 969,
      "Ġeach": 970,
      "Ġhome": 971,
      "ĠAs": 972,
      "20": 973,
      "ublic": 974,
      "Ġstill": 975,
      "Ġinformation": 976,
      "Ġcour": 977,
      "Ġsame": 978,
      "ution": 979,
      "Ġsay": 980,
      "Ġstr": 981,
      "ines": 982,
      "Ġsl": 983,
      ",âĢĿ": 984,
      "ctions": 985,
      "Ġcount": 986,
      "chn": 987,
      "akes": 988,
      "Ġsign": 989,
      "ved": 990,
      "Ġmet": 991,
      "Ġmem": 992,
      "Ġ10": 993,
      "gram": 994,
      "Ġlast": 995,
      "Ġpoint": 996,
      "ale": 997,
      "Ġaround": 998,
      "Ġlead": 999,
      "Ġfeel": 1000,
      "Ġbetween": 1001,
      "ĠThey": 1002,
      "Ġchar": 1003,
      "ata": 1004,
      "Ġwee": 1005,
      "Ġret": 1006,
      "ouse": 1007,
      "Ġart": 1008,
      "Ġav": 1009,
      "gg": 1010,
      "Ġcre": 1011,
      "Ġ7": 1012,
      "Ġfollow": 1013,
      "Ġchild": 1014,
      "ĠFor": 1015,
      "Ġaut": 1016,
      "der": 1017,
      "ĠAl": 1018,
      "read": 1019,
      ".\"": 1020,
      "ize": 1021,
      "atch": 1022,
      "az": 1023,
      "Ġgr": 1024,
      "Ġcare": 1025,
      "Ġboth": 1026,
      "view": 1027,
      "ages": 1028,
      "Ġbo": 1029,
      "Ġadv": 1030,
      "ody": 1031,
      "Ġimport": 1032,
      "Ġsupport": 1033,
      "meric": 1034,
      "Ġcomple": 1035,
      "Ġcle": 1036,
      "Ġ&": 1037,
      "Ġvis": 1038,
      "ĠNew": 1039,
      "roup": 1040,
      "ah": 1041,
      "ple": 1042,
      "Ġprovid": 1043,
      "Ġfact": 1044,
      "ention": 1045,
      "Ġcur": 1046,
      "Ġmarket": 1047,
      "Ġob": 1048,
      "pr": 1049,
      "Ġproduct": 1050,
      "Ġthings": 1051,
      "Ġlot": 1052,
      "the": 1053,
      "ittle": 1054,
      "land": 1055,
      "Ġprocess": 1056,
      "irect": 1057,
      "Ġed": 1058,
      "Ġtoo": 1059,
      "Ġfew": 1060,
      "Ġgener": 1061,
      "ized": 1062,
      "Ġbook": 1063,
      "ways": 1064,
      "Ġser": 1065,
      "Ġcommun": 1066,
      "ĠSe": 1067,
      "ying": 1068,
      "Ġplace": 1069,
      "ute": 1070,
      "oun": 1071,
      "riend": 1072,
      "Ġeas": 1073,
      "ĠDe": 1074,
      "arm": 1075,
      "Ġhapp": 1076,
      "Ġ8": 1077,
      "ten": 1078,
      "Ġsk": 1079,
      "less": 1080,
      "Ġfound": 1081,
      "cer": 1082,
      "ĠSh": 1083,
      "Ġpur": 1084,
      "Ġform": 1085,
      "Ġext": 1086,
      "vern": 1087,
      "ash": 1088,
      "ically": 1089,
      "Wh": 1090,
      "Ġcor": 1091,
      "Ġdesign": 1092,
      "Ġgl": 1093,
      "ivers": 1094,
      "ves": 1095,
      "Ġthree": 1096,
      "Ġstate": 1097,
      "ars": 1098,
      "ĠThere": 1099,
      "ists": 1100,
      "man": 1101,
      "Ġhealth": 1102,
      "thing": 1103,
      "Ġteam": 1104,
      "ants": 1105,
      "Ġdef": 1106,
      "ital": 1107,
      "ĠHow": 1108,
      "Ġlar": 1109,
      "Ġpartic": 1110,
      "Ġrun": 1111,
      "Ġprof": 1112,
      "Ġty": 1113,
      "Ġposs": 1114,
      "ĠAr": 1115,
      "Ġlittle": 1116,
      "ĠAmeric": 1117,
      "Ġappro": 1118,
      "Ġprogram": 1119,
      "Ġresult": 1120,
      "Ġmust": 1121,
      "Ġref": 1122,
      "ustom": 1123,
      "uc": 1124,
      "ired": 1125,
      "ense": 1126,
      "Ġ9": 1127,
      "Ġeffect": 1128,
      "Ġfree": 1129,
      "Ġwithout": 1130,
      "ature": 1131,
      "Ġplan": 1132,
      "ology": 1133,
      "ames": 1134,
      "Ġfun": 1135,
      "We": 1136,
      "Ġsomething": 1137,
      "Ġresp": 1138,
      "Ġcome": 1139,
      "Ġmight": 1140,
      "oh": 1141,
      "Ġpat": 1142,
      "ism": 1143,
      "Ġval": 1144,
      "It": 1145,
      "ined": 1146,
      "000": 1147,
      "Ġdist": 1148,
      "Ġkeep": 1149,
      "Ġduring": 1150,
      "Ġsoc": 1151,
      "Ġtechn": 1152,
      "Ġvar": 1153,
      "Ġlear": 1154,
      "ĠCl": 1155,
      "stand": 1156,
      "...": 1157,
      "Ġwom": 1158,
      "ality": 1159,
      "con": 1160,
      "gy": 1161,
      "ross": 1162,
      "ĠLe": 1163,
      "ared": 1164,
      "Ġbetter": 1165,
      "Ġtop": 1166,
      "Ġiss": 1167,
      "Ġput": 1168,
      "Ġanother": 1169,
      "ertain": 1170,
      "Ġfr": 1171,
      "ger": 1172,
      "Ġallow": 1173,
      "Ġquest": 1174,
      "Ġimportant": 1175,
      "Ġusing": 1176,
      "Ġopt": 1177,
      "Ġdata": 1178,
      "Ġinterest": 1179,
      "Ġconf": 1180,
      "be": 1181,
      "Ġlove": 1182,
      "Ġpay": 1183,
      "Ġcontin": 1184,
      "Ġnever": 1185,
      "att": 1186,
      "Ġfull": 1187,
      "ĠShe": 1188,
      "ional": 1189,
      "Ġsol": 1190,
      "Ġalways": 1191,
      "ling": 1192,
      "Ġfil": 1193,
      "Ġmain": 1194,
      "ĠSo": 1195,
      "Ġmonth": 1196,
      "ets": 1197,
      "uss": 1198,
      "ĠâĢĺ": 1199,
      "âĢĶ": 1200,
      "Ġincre": 1201,
      "bers": 1202,
      "Ġsmall": 1203,
      "ural": 1204,
      "Ġrest": 1205,
      "Ġlist": 1206,
      "Ġcent": 1207,
      "Ġbig": 1208,
      "Ġopen": 1209,
      "ering": 1210,
      "Ġpri": 1211,
      "ĠAd": 1212,
      "Ġreport": 1213,
      "10": 1214,
      "Ġwr": 1215,
      "Ġstand": 1216,
      "iving": 1217,
      "ex": 1218,
      "Ġgot": 1219,
      "Ġgroup": 1220,
      "Ġask": 1221,
      "oney": 1222,
      "Ġide": 1223,
      "Ġhead": 1224,
      "cent": 1225,
      "ploy": 1226,
      "Ġpost": 1227,
      "Ġtri": 1228,
      "Ġpass": 1229,
      "ately": 1230,
      "ining": 1231,
      "Ġschool": 1232,
      "Ġinf": 1233,
      "Ġcr": 1234,
      "Ġproble": 1235,
      "ton": 1236,
      "Ġorgan": 1237,
      "This": 1238,
      "Ġpower": 1239,
      "ield": 1240,
      "oad": 1241,
      "âĢ¦": 1242,
      "Ġopp": 1243,
      "ished": 1244,
      "Ġhard": 1245,
      "Ġexpl": 1246,
      "rol": 1247,
      "Ġlet": 1248,
      "ug": 1249,
      "Ġnumber": 1250,
      "rand": 1251,
      "ier": 1252,
      "Ġwater": 1253,
      "ample": 1254,
      "Ġlevel": 1255,
      "aj": 1256,
      "Ġincluding": 1257,
      "Ġlaw": 1258,
      "ĠOn": 1259,
      "Ġcho": 1260,
      "Ġgame": 1261,
      "Ġnext": 1262,
      "Ġbuild": 1263,
      "Ġspec": 1264,
      "Ġcustom": 1265,
      "Ġfriend": 1266,
      "ision": 1267,
      "ĠIs": 1268,
      "Ġcompany": 1269,
      "ĠBe": 1270,
      "uck": 1271,
      "Ġhum": 1272,
      "Ġagainst": 1273,
      "Ġless": 1274,
      "cl": 1275,
      "me": 1276,
      "orn": 1277,
      "Ġsince": 1278,
      "Ġsecond": 1279,
      "oot": 1280,
      "Ġcost": 1281,
      "rist": 1282,
      "Ġmov": 1283,
      "ware": 1284,
      "pend": 1285,
      "Ġpublic": 1286,
      "Ġbelie": 1287,
      "ret": 1288,
      "Ġold": 1289,
      ".,": 1290,
      "Ġsure": 1291,
      "19": 1292,
      "ases": 1293,
      "Ġdri": 1294,
      "Ġpos": 1295,
      "Ġperform": 1296,
      "Ġsit": 1297,
      "Ġseem": 1298,
      "ĠâĢĶ": 1299,
      "Ġel": 1300,
      "Ġexperience": 1301,
      "Ġavail": 1302,
      "ably": 1303,
      "Ġbro": 1304,
      "Ġ.": 1305,
      "Ġinvest": 1306,
      "ien": 1307,
      "Ġonline": 1308,
      "Ġca": 1309,
      "to": 1310,
      "Ġable": 1311,
      "Ġrece": 1312,
      "els": 1313,
      "Ġmus": 1314,
      "Ġfamily": 1315,
      "Ġgrow": 1316,
      "ivid": 1317,
      "pos": 1318,
      "ps": 1319,
      "Ġtest": 1320,
      "Ġdirect": 1321,
      "ĠThat": 1322,
      "Ġgive": 1323,
      "ĠCom": 1324,
      "ccess": 1325,
      "reen": 1326,
      "Ġ'": 1327,
      "ĠPl": 1328,
      "Ġbre": 1329,
      "ĠBl": 1330,
      "Ġwithin": 1331,
      "ĠInd": 1332,
      "ĠQ": 1333,
      "rence": 1334,
      "ned": 1335,
      "ruct": 1336,
      "Ġclass": 1337,
      "Ġturn": 1338,
      "Ġleg": 1339,
      "Ġgovern": 1340,
      "Ġrese": 1341,
      "port": 1342,
      "Ġorder": 1343,
      "Ġcase": 1344,
      "ER": 1345,
      "illion": 1346,
      "lease": 1347,
      "inal": 1348,
      "Ġprev": 1349,
      "br": 1350,
      "ĠGod": 1351,
      ",\"": 1352,
      "here": 1353,
      "ider": 1354,
      "Ġdays": 1355,
      "ĠEx": 1356,
      "Ġi": 1357,
      "Ġest": 1358,
      "ards": 1359,
      "ird": 1360,
      "ted": 1361,
      "Ġprote": 1362,
      "iqu": 1363,
      "ortun": 1364,
      "Ġben": 1365,
      "ered": 1366,
      "Ġunt": 1367,
      "Ġdem": 1368,
      "ently": 1369,
      "work": 1370,
      "cing": 1371,
      "Ġavailable": 1372,
      "ral": 1373,
      "Ġproject": 1374,
      "ffic": 1375,
      "of": 1376,
      "atter": 1377,
      "ior": 1378,
      "Ġsays": 1379,
      "Ġ18": 1380,
      "Ġunderstand": 1381,
      "Ġpop": 1382,
      "Ġbeh": 1383,
      "Ġoper": 1384,
      "ised": 1385,
      "Ġaway": 1386,
      "Ġservice": 1387,
      "iversity": 1388,
      "Ġmoney": 1389,
      "Ġprom": 1390,
      "ĠAll": 1391,
      "Ġthing": 1392,
      "ients": 1393,
      "Ġve": 1394,
      "Ġcap": 1395,
      "gin": 1396,
      "ains": 1397,
      "ĠTo": 1398,
      "med": 1399,
      "ĠZ": 1400,
      "Ġeng": 1401,
      "Ġterm": 1402,
      "Ġoften": 1403,
      "Ġproper": 1404,
      "Ġprovide": 1405,
      "ĠAt": 1406,
      "Ġmaking": 1407,
      "iven": 1408,
      "Ġwhy": 1409,
      "If": 1410,
      "raph": 1411,
      "Ġkind": 1412,
      "ron": 1413,
      "ential": 1414,
      "Ġequ": 1415,
      "Ġweek": 1416,
      "ats": 1417,
      "eng": 1418,
      "Ġconst": 1419,
      "Ġpresent": 1420,
      "Ġchange": 1421,
      "Ġaddition": 1422,
      "ission": 1423,
      "ization": 1424,
      "ĠWhen": 1425,
      "ote": 1426,
      "co": 1427,
      "ability": 1428,
      "Ġfood": 1429,
      "ĠTr": 1430,
      "Ġpract": 1431,
      "Ġjob": 1432,
      "Ġchang": 1433,
      "Ġword": 1434,
      "hor": 1435,
      "ified": 1436,
      "Ġhist": 1437,
      "Ġmeet": 1438,
      "Ġlight": 1439,
      "ember": 1440,
      "Ġcourse": 1441,
      "ĠCon": 1442,
      "ĠFr": 1443,
      "ator": 1444,
      "pped": 1445,
      "Ġchildren": 1446,
      "Ġsing": 1447,
      "ead": 1448,
      "Ġbas": 1449,
      "Ġfour": 1450,
      "Ġdidn": 1451,
      "ĠPh": 1452,
      "Ġwrit": 1453,
      "Ġ12": 1454,
      "Ġcurrent": 1455,
      "ours": 1456,
      "Ġview": 1457,
      "ĠWhat": 1458,
      "Ġ[": 1459,
      "Ġintern": 1460,
      "itions": 1461,
      "ills": 1462,
      "iron": 1463,
      "Ġcertain": 1464,
      "outh": 1465,
      "iety": 1466,
      "Ġaccess": 1467,
      "Ġhaving": 1468,
      "ump": 1469,
      "por": 1470,
      "Ġworking": 1471,
      "Ġemploy": 1472,
      "arent": 1473,
      "Ġtell": 1474,
      "Ġes": 1475,
      "Ġwin": 1476,
      "Ġactiv": 1477,
      "ĠUS": 1478,
      "Ġlarge": 1479,
      "Ġbody": 1480,
      "ium": 1481,
      "ina": 1482,
      "Ġtalk": 1483,
      "ividual": 1484,
      "Ġimpro": 1485,
      "ĠChrist": 1486,
      "ination": 1487,
      "Ġdev": 1488,
      "aim": 1489,
      "ration": 1490,
      "ream": 1491,
      "oint": 1492,
      "ured": 1493,
      "ury": 1494,
      "Ġservices": 1495,
      "Ġfac": 1496,
      "augh": 1497,
      "aring": 1498,
      "ann": 1499,
      "ising": 1500,
      "tend": 1501,
      "Ġleft": 1502,
      "Ġtimes": 1503,
      "ik": 1504,
      "Ġwebs": 1505,
      "Ġmove": 1506,
      "Ġenough": 1507,
      "50": 1508,
      "conom": 1509,
      "Ġele": 1510,
      "Ġsuccess": 1511,
      "ĠComm": 1512,
      "You": 1513,
      "ĠSp": 1514,
      "Ġ0": 1515,
      "itive": 1516,
      "Ġcond": 1517,
      "ids": 1518,
      "Ġdr": 1519,
      "ott": 1520,
      "Ġrecord": 1521,
      "lish": 1522,
      "Ġuntil": 1523,
      "Ġbecome": 1524,
      "Ġ199": 1525,
      "ived": 1526,
      "Ġpast": 1527,
      "Ġfar": 1528,
      "Ġarea": 1529,
      "oci": 1530,
      "Ġwomen": 1531,
      "Ġtreat": 1532,
      "icle": 1533,
      "iting": 1534,
      "aut": 1535,
      "ĠOr": 1536,
      "ajor": 1537,
      "ocus": 1538,
      "ope": 1539,
      "Ġmean": 1540,
      "ĠTe": 1541,
      "Ġlooking": 1542,
      "Ġdra": 1543,
      "ged": 1544,
      "ained": 1545,
      "Ġmen": 1546,
      "Ġexpect": 1547,
      "Ġmeans": 1548,
      "Ġname": 1549,
      "Ġsal": 1550,
      "Ġapplic": 1551,
      "Ġside": 1552,
      "ries": 1553,
      "let": 1554,
      "Ġpot": 1555,
      "Ġactually": 1556,
      "ories": 1557,
      "Ġindividual": 1558,
      "ĠGo": 1559,
      "gether": 1560,
      "Ġtogether": 1561,
      "Ġstudents": 1562,
      "agement": 1563,
      "Ġlocal": 1564,
      "Ġdi": 1565,
      "Ġocc": 1566,
      "ency": 1567,
      "pping": 1568,
      "ready": 1569,
      "Ġnight": 1570,
      "Ġever": 1571,
      "Ġroom": 1572,
      "Ġaccount": 1573,
      "Ġair": 1574,
      "Ġcontrol": 1575,
      "ither": 1576,
      "part": 1577,
      "Ġmar": 1578,
      "ĠNo": 1579,
      "Ġtoday": 1580,
      "Ġsite": 1581,
      "Ġdone": 1582,
      "uro": 1583,
      "min": 1584,
      "Ġothers": 1585,
      "Ġsever": 1586,
      "Ġprofess": 1587,
      "Ġsocial": 1588,
      "Ġline": 1589,
      "Ġsw": 1590,
      "Ġconne": 1591,
      "Ġmind": 1592,
      "Ġcomplete": 1593,
      "Ġfore": 1594,
      "Ġtrad": 1595,
      "ane": 1596,
      "Ġcalled": 1597,
      "Ġpa": 1598,
      "Ġbenef": 1599,
      "ley": 1600,
      "IN": 1601,
      "ney": 1602,
      "He": 1603,
      "side": 1604,
      "Ġspecial": 1605,
      "Ġalong": 1606,
      "âĢĵ": 1607,
      "Ġpossible": 1608,
      "Ġlim": 1609,
      "ĠCol": 1610,
      "Ġexample": 1611,
      "orth": 1612,
      "by": 1613,
      "sh": 1614,
      "Ġindust": 1615,
      "Ġbit": 1616,
      "Ġcreat": 1617,
      "Ġparticular": 1618,
      "Ġdoing": 1619,
      "ohn": 1620,
      "Ġhouse": 1621,
      "aterial": 1622,
      "Ġgovernment": 1623,
      "Ġwar": 1624,
      "ĠRes": 1625,
      "Ġshort": 1626,
      "Ġresearch": 1627,
      "Ġcame": 1628,
      "Ġstory": 1629,
      "Ġpain": 1630,
      "12": 1631,
      "ĠCan": 1632,
      "Ġnear": 1633,
      "ĠWith": 1634,
      "fer": 1635,
      "Ġmakes": 1636,
      "Ġalready": 1637,
      "'re": 1638,
      "ĠMar": 1639,
      "Ġnon": 1640,
      "ances": 1641,
      "Ġpersonal": 1642,
      "Ġcountry": 1643,
      "not": 1644,
      "hod": 1645,
      "Ġclear": 1646,
      "ĠSc": 1647,
      "Ġleast": 1648,
      "utes": 1649,
      "Ġseveral": 1650,
      "joy": 1651,
      "alf": 1652,
      "aster": 1653,
      "Ġanal": 1654,
      "ee": 1655,
      "ike": 1656,
      "ino": 1657,
      "ĠMan": 1658,
      "Ġmajor": 1659,
      "Ġreason": 1660,
      "As": 1661,
      "Ġann": 1662,
      "Ġland": 1663,
      "ots": 1664,
      "ww": 1665,
      "Ġneeds": 1666,
      "Ġgetting": 1667,
      "over": 1668,
      "Ġcharact": 1669,
      "lf": 1670,
      "osed": 1671,
      "11": 1672,
      "Ġthought": 1673,
      "Ġfocus": 1674,
      "Ġcheck": 1675,
      "Ġelect": 1676,
      "most": 1677,
      "Ġhuman": 1678,
      "ians": 1679,
      "Ġcolle": 1680,
      "ON": 1681,
      "uture": 1682,
      "Ġet": 1683,
      "What": 1684,
      "Ġris": 1685,
      "atic": 1686,
      "Ġbased": 1687,
      "ern": 1688,
      "Ġ15": 1689,
      "ox": 1690,
      "orts": 1691,
      "Ġvide": 1692,
      "Ġey": 1693,
      "Ġinclude": 1694,
      "Ġfund": 1695,
      "ording": 1696,
      "Ġlive": 1697,
      "ption": 1698,
      "Ġreview": 1699,
      "Ġtre": 1700,
      "Ġdoesn": 1701,
      "viron": 1702,
      "rap": 1703,
      "err": 1704,
      "Ġhold": 1705,
      "wh": 1706,
      "Ġonce": 1707,
      "urther": 1708,
      "ode": 1709,
      "ides": 1710,
      "cially": 1711,
      "Ġinvol": 1712,
      "Ġlow": 1713,
      "Ġhappen": 1714,
      "Ġmil": 1715,
      "Ġcou": 1716,
      "Ġspecific": 1717,
      "Ġmom": 1718,
      "Ġevent": 1719,
      "Ġcomes": 1720,
      "aps": 1721,
      "Ġcommunity": 1722,
      "irc": 1723,
      "ush": 1724,
      "Ġfollowing": 1725,
      "Ġredu": 1726,
      "Ġquick": 1727,
      "Ġtyp": 1728,
      "ĠAmerican": 1729,
      "Ġmembers": 1730,
      "ulation": 1731,
      "Ġident": 1732,
      "Ġyoung": 1733,
      "30": 1734,
      "Ġoffer": 1735,
      "Ġeconom": 1736,
      "for": 1737,
      "crib": 1738,
      "ĠThese": 1739,
      "Ġdeal": 1740,
      "Ġmaterial": 1741,
      "ĠMy": 1742,
      "Ġproducts": 1743,
      "ows": 1744,
      "AT": 1745,
      "Ġoffic": 1746,
      "Ġphot": 1747,
      "ĠHowever": 1748,
      "Ġ30": 1749,
      "Ġeasy": 1750,
      "Ġmult": 1751,
      "Ġtook": 1752,
      "Ġeduc": 1753,
      "Ġwent": 1754,
      "ES": 1755,
      "use": 1756,
      "urity": 1757,
      "tt": 1758,
      "wards": 1759,
      "idd": 1760,
      "idence": 1761,
      "Ġpar": 1762,
      "Ġenjoy": 1763,
      "rop": 1764,
      "ĠAm": 1765,
      "ĠCent": 1766,
      "Ġreturn": 1767,
      "Ġlater": 1768,
      "ored": 1769,
      "Ġcamp": 1770,
      "Ġwebsite": 1771,
      "Ġseason": 1772,
      "urs": 1773,
      "ĠEng": 1774,
      "aken": 1775,
      "Ġess": 1776,
      "Ġrequire": 1777,
      "Ġnet": 1778,
      "Ġstrong": 1779,
      "ery": 1780,
      "ĠUniversity": 1781,
      "son": 1782,
      "Ġrelations": 1783,
      "ĠCo": 1784,
      "Ġant": 1785,
      "Ġpolit": 1786,
      "Ġfuture": 1787,
      "Ġstarted": 1788,
      "Ġopportun": 1789,
      "ched": 1790,
      "Ġacross": 1791,
      "Ġfeat": 1792,
      "Ġ11": 1793,
      "rodu": 1794,
      "Ġwhether": 1795,
      "ify": 1796,
      "Ġdevelopment": 1797,
      "unt": 1798,
      "ape": 1799,
      "Ġhig": 1800,
      "irl": 1801,
      "Ġquality": 1802,
      "Ġcreate": 1803,
      "Ġsoft": 1804,
      "Ġgiven": 1805,
      "iod": 1806,
      "Ġtem": 1807,
      "ĠJohn": 1808,
      "app": 1809,
      "though": 1810,
      "Ġproblem": 1811,
      "ique": 1812,
      "Ġearly": 1813,
      "ĠMay": 1814,
      "AR": 1815,
      "ĠSu": 1816,
      "Ġclaim": 1817,
      "ĠCar": 1818,
      "Ġkey": 1819,
      "une": 1820,
      "ches": 1821,
      "ails": 1822,
      "Ġpress": 1823,
      "Ġstep": 1824,
      "Ġtry": 1825,
      "vironment": 1826,
      "There": 1827,
      "Ġquestion": 1828,
      "Ġauthor": 1829,
      "Ġprob": 1830,
      "Ġcompan": 1831,
      "Ġmusic": 1832,
      "Ġorig": 1833,
      "AN": 1834,
      "ully": 1835,
      "par": 1836,
      "Ġla": 1837,
      "Ġcity": 1838,
      "ene": 1839,
      "aff": 1840,
      "__": 1841,
      "Ġpolic": 1842,
      "ĠDo": 1843,
      "Ġyet": 1844,
      "Ġknown": 1845,
      "ilar": 1846,
      "resent": 1847,
      "Ġmillion": 1848,
      "ones": 1849,
      "Ġcult": 1850,
      "Ġheart": 1851,
      "Ġbegin": 1852,
      "selves": 1853,
      "itor": 1854,
      "Ġlo": 1855,
      "ĠOne": 1856,
      "ony": 1857,
      "inc": 1858,
      "Ġfav": 1859,
      "Ġpercent": 1860,
      "Ġconsider": 1861,
      "enn": 1862,
      "Ġstudy": 1863,
      "Ġwa": 1864,
      "Ġamount": 1865,
      "Ġamong": 1866,
      "ĠApp": 1867,
      "Ġ--": 1868,
      "Ġwon": 1869,
      "Ġwhole": 1870,
      "Ġappear": 1871,
      "sw": 1872,
      "Ġmonths": 1873,
      "mm": 1874,
      "pecially": 1875,
      "Ġsomeone": 1876,
      "ply": 1877,
      "iously": 1878,
      "uly": 1879,
      "'m": 1880,
      "Ġtax": 1881,
      "uff": 1882,
      "Ġdiff": 1883,
      "Ġtold": 1884,
      "ĠUnited": 1885,
      "acy": 1886,
      "ateg": 1887,
      "Ġbuy": 1888,
      "lling": 1889,
      "ibility": 1890,
      "Ġphys": 1891,
      "Ġseen": 1892,
      "ges": 1893,
      "sc": 1894,
      "Ġrespons": 1895,
      "Ġfre": 1896,
      "Ġcommon": 1897,
      "Ġdiscuss": 1898,
      "Ġmethod": 1899,
      "Ġchall": 1900,
      "Ġface": 1901,
      "OR": 1902,
      "Ġvers": 1903,
      "eral": 1904,
      "Ġcompet": 1905,
      "tain": 1906,
      "Ġbring": 1907,
      "Ġener": 1908,
      "Ġeverything": 1909,
      "ctor": 1910,
      "lement": 1911,
      "load": 1912,
      "ĠFl": 1913,
      "ources": 1914,
      "Ġbelieve": 1915,
      "new": 1916,
      "Ġclose": 1917,
      "Ġwalk": 1918,
      "ister": 1919,
      "lished": 1920,
      "Ġcontent": 1921,
      "Ġfriends": 1922,
      "Ġcomb": 1923,
      "Ġcell": 1924,
      "Ġsound": 1925,
      "ommend": 1926,
      "ĠSte": 1927,
      "ners": 1928,
      "Ġnews": 1929,
      "ued": 1930,
      "Ġfive": 1931,
      "Ġhours": 1932,
      "Ġcover": 1933,
      "oor": 1934,
      "ively": 1935,
      "mber": 1936,
      "ograph": 1937,
      "ler": 1938,
      "For": 1939,
      "Ġage": 1940,
      "Ġpriv": 1941,
      "ogn": 1942,
      "Ġanything": 1943,
      "utions": 1944,
      "ental": 1945,
      "How": 1946,
      "ai": 1947,
      "Ġsingle": 1948,
      "ison": 1949,
      "Ġsex": 1950,
      "rain": 1951,
      "Ġperiod": 1952,
      "Ġvol": 1953,
      "Ġcut": 1954,
      "ference": 1955,
      "uation": 1956,
      "Ġtool": 1957,
      "icult": 1958,
      "And": 1959,
      "Ġce": 1960,
      "ggest": 1961,
      "Ġsignific": 1962,
      "Ġenc": 1963,
      "Ġabove": 1964,
      "ĠRep": 1965,
      "ilities": 1966,
      "ĠMed": 1967,
      "St": 1968,
      "Ġnat": 1969,
      "ource": 1970,
      "Ġstay": 1971,
      "yle": 1972,
      "urch": 1973,
      "eb": 1974,
      "elt": 1975,
      "Ġgames": 1976,
      "15": 1977,
      "rew": 1978,
      "Ġens": 1979,
      "But": 1980,
      "oid": 1981,
      "mb": 1982,
      "Ġcompanies": 1983,
      "illed": 1984,
      "Ġhistory": 1985,
      "ster": 1986,
      "ĠPr": 1987,
      "ĠX": 1988,
      "Ġ16": 1989,
      "Ġtaking": 1990,
      "Ġfinan": 1991,
      "Ġmot": 1992,
      "Ġshare": 1993,
      "Ġdue": 1994,
      "Ġhot": 1995,
      "ĠInst": 1996,
      "Ġste": 1997,
      "Ġrelationship": 1998,
      "'ve": 1999,
      "Ġissues": 2000,
      "Ġcrit": 2001,
      "Ġconcer": 2002,
      "Ġeither": 2003,
      "Ġresults": 2004,
      "rict": 2005,
      "Ġtot": 2006,
      "Ġcred": 2007,
      "Ġnecess": 2008,
      "Ġalmost": 2009,
      "Ġfield": 2010,
      "Ġsuper": 2011,
      "hers": 2012,
      "ĠSy": 2013,
      "Ġlink": 2014,
      "ocu": 2015,
      "osp": 2016,
      "Ġvisit": 2017,
      "Ġsuggest": 2018,
      "Ġrele": 2019,
      "Ġaddress": 2020,
      "ift": 2021,
      "--": 2022,
      "Ġspace": 2023,
      "ples": 2024,
      "ially": 2025,
      "Ġhowever": 2026,
      "imate": 2027,
      "Ġaff": 2028,
      "Ġport": 2029,
      "Ġ14": 2030,
      "Ġindustry": 2031,
      "Ġvalue": 2032,
      "Ġplac": 2033,
      "Ġidea": 2034,
      "Ġmor": 2035,
      "Ġtype": 2036,
      "asing": 2037,
      "Ġrecommend": 2038,
      "Ġbar": 2039,
      "Ġentire": 2040,
      "ĠÂ": 2041,
      "ging": 2042,
      "Ġlikely": 2043,
      "Ġbeaut": 2044,
      "Ġfall": 2045,
      "ĠEn": 2046,
      "sy": 2047,
      "Ġdel": 2048,
      "ĠNe": 2049,
      "Ġcal": 2050,
      "Ġself": 2051,
      "Ġmeas": 2052,
      "Ġexc": 2053,
      "Ġperfect": 2054,
      "ĠNot": 2055,
      "Ġpick": 2056,
      "Ġmedia": 2057,
      "ledge": 2058,
      "Ġquite": 2059,
      "ried": 2060,
      "Ġbad": 2061,
      "When": 2062,
      "Ġaud": 2063,
      "go": 2064,
      "ourn": 2065,
      "orld": 2066,
      "Ġbreak": 2067,
      "ights": 2068,
      "used": 2069,
      "Ġcontact": 2070,
      "Ġeff": 2071,
      "Ġcirc": 2072,
      "Ġrather": 2073,
      "Ġfurther": 2074,
      "cted": 2075,
      "abor": 2076,
      "ĠEuro": 2077,
      "Ġcompl": 2078,
      "Ġz": 2079,
      "Ġprice": 2080,
      "ĠIntern": 2081,
      "dd": 2082,
      "An": 2083,
      "ĠState": 2084,
      "Ġmess": 2085,
      "Ġvi": 2086,
      "Ġdifficult": 2087,
      "ĠAfter": 2088,
      "Ġpurch": 2089,
      "ĠBr": 2090,
      "ilt": 2091,
      "Ġenergy": 2092,
      "Ġespecially": 2093,
      "ips": 2094,
      "Ġlearn": 2095,
      "Ġhalf": 2096,
      "pro": 2097,
      "Ġvideo": 2098,
      "Ġenvironment": 2099,
      "book": 2100,
      "ĠComp": 2101,
      "cle": 2102,
      "cri": 2103,
      "ober": 2104,
      "ication": 2105,
      "Ġ17": 2106,
      "ili": 2107,
      "Ġrisk": 2108,
      "irt": 2109,
      "Ġdeterm": 2110,
      "Ġvarious": 2111,
      "EN": 2112,
      "ĠAss": 2113,
      "Ġhy": 2114,
      "ĠHis": 2115,
      "Ġinfl": 2116,
      "gress": 2117,
      "Ġclean": 2118,
      "reet": 2119,
      "Ġasked": 2120,
      "Ġrepl": 2121,
      "room": 2122,
      "Ġmanag": 2123,
      "Ġwanted": 2124,
      "Ġsignificant": 2125,
      "ators": 2126,
      "Ġworks": 2127,
      "18": 2128,
      "irm": 2129,
      "Ġwind": 2130,
      "Ġtrying": 2131,
      "Ġways": 2132,
      "Ġparent": 2133,
      "unch": 2134,
      "oon": 2135,
      "ensive": 2136,
      "Ġpack": 2137,
      "Ġfront": 2138,
      "Ġpub": 2139,
      "Ġsimply": 2140,
      "Ġimprove": 2141,
      "Ġ13": 2142,
      "Ġquestions": 2143,
      "ĠMe": 2144,
      "ĠYour": 2145,
      "Ġpie": 2146,
      "14": 2147,
      "Ġconsum": 2148,
      "Ġelse": 2149,
      "13": 2150,
      "Ġprobably": 2151,
      "ama": 2152,
      "bo": 2153,
      "Ġabs": 2154,
      "ĠGu": 2155,
      "On": 2156,
      "che": 2157,
      "chie": 2158,
      "ĠStates": 2159,
      "ided": 2160,
      "Ġdeb": 2161,
      "Ġexist": 2162,
      "Ġtaken": 2163,
      "Ġmatter": 2164,
      "Ġcharacter": 2165,
      "ung": 2166,
      "ĠCont": 2167,
      "16": 2168,
      "Ġupon": 2169,
      "Ġtechnology": 2170,
      "Ġago": 2171,
      "itted": 2172,
      "ĠYork": 2173,
      "Ġpage": 2174,
      "agn": 2175,
      "af": 2176,
      "ĠMr": 2177,
      "ball": 2178,
      "Ġdam": 2179,
      "rown": 2180,
      "Ġwatch": 2181,
      "Ġposition": 2182,
      "Ġminutes": 2183,
      "Ġsent": 2184,
      "ole": 2185,
      "Ġ/": 2186,
      "ands": 2187,
      "ites": 2188,
      "Ġdeli": 2189,
      "Ġdig": 2190,
      "Ġwond": 2191,
      "Ġneeded": 2192,
      "Ġbuilding": 2193,
      "Ġ100": 2194,
      "Ġfail": 2195,
      "Ġcra": 2196,
      "vert": 2197,
      "Ġthird": 2198,
      "rug": 2199,
      "Ġeveryone": 2200,
      "Ġspend": 2201,
      "Ġnothing": 2202,
      "fort": 2203,
      "Ġsubject": 2204,
      "de": 2205,
      "Ġwords": 2206,
      "ification": 2207,
      "Ġcas": 2208,
      "angu": 2209,
      "Ġexam": 2210,
      "Ġsimilar": 2211,
      "ires": 2212,
      "Ġwriting": 2213,
      "cell": 2214,
      "ĠServ": 2215,
      "Ġtravel": 2216,
      "Ġbrand": 2217,
      "Ġisn": 2218,
      "Ġdou": 2219,
      "ring": 2220,
      "Ġissue": 2221,
      "Ġaccept": 2222,
      "back": 2223,
      "Ġrequired": 2224,
      "ĠEurope": 2225,
      "Ġ|": 2226,
      "urance": 2227,
      "obal": 2228,
      "Ġinit": 2229,
      "Ġproblems": 2230,
      "Ġblack": 2231,
      "ask": 2232,
      "Ġansw": 2233,
      "AL": 2234,
      "So": 2235,
      "Ġstat": 2236,
      "AS": 2237,
      "Ġdocu": 2238,
      "aching": 2239,
      "200": 2240,
      "Ġbelow": 2241,
      "reme": 2242,
      "Ġjo": 2243,
      "Ġperformance": 2244,
      "Ġfilm": 2245,
      "Ġsearch": 2246,
      "ĠCal": 2247,
      "Ġseries": 2248,
      "omes": 2249,
      "Ġcomput": 2250,
      "Ġimpact": 2251,
      "'ll": 2252,
      "Ġaction": 2253,
      "Ġtrack": 2254,
      "Ġregard": 2255,
      "Ġyourself": 2256,
      "IS": 2257,
      "Ġassoci": 2258,
      ".)": 2259,
      "Ġitem": 2260,
      "//": 2261,
      "yn": 2262,
      "ĠSec": 2263,
      "ises": 2264,
      "Ġmanagement": 2265,
      "Ġrepresent": 2266,
      "Ġstop": 2267,
      "US": 2268,
      "Ġtraining": 2269,
      "Ġareas": 2270,
      "Ġsimple": 2271,
      "Ġexperien": 2272,
      "Ġtrue": 2273,
      "Ġloss": 2274,
      "Ġdeath": 2275,
      "Ġcoming": 2276,
      "fact": 2277,
      "Ch": 2278,
      "Ġweb": 2279,
      "Ġrespect": 2280,
      "Ġgeneral": 2281,
      "lex": 2282,
      "Ġpoints": 2283,
      "Ġgirl": 2284,
      "Ġsix": 2285,
      "gest": 2286,
      "Ġagree": 2287,
      "Ġparticip": 2288,
      "Ġpret": 2289,
      "Ġcannot": 2290,
      "Ġemail": 2291,
      "Ġgra": 2292,
      "where": 2293,
      "Ġmiss": 2294,
      "ĠSome": 2295,
      "Ġbehind": 2296,
      "Ġfeatures": 2297,
      "play": 2298,
      "Ġestab": 2299,
      "Ġrange": 2300,
      "apt": 2301,
      "Ġgen": 2302,
      "Ġfinancial": 2303,
      "Ġliving": 2304,
      "icro": 2305,
      "IT": 2306,
      "Ġincrease": 2307,
      "anks": 2308,
      "icated": 2309,
      "roll": 2310,
      "://": 2311,
      "Ġstore": 2312,
      "ille": 2313,
      "empt": 2314,
      "ruction": 2315,
      "Ġrole": 2316,
      "medi": 2317,
      "lt": 2318,
      "val": 2319,
      "Ġ25": 2320,
      "ules": 2321,
      "Ġ24": 2322,
      "Ġhigher": 2323,
      "Ġexpress": 2324,
      "oved": 2325,
      "Ġoil": 2326,
      "ĠPres": 2327,
      "Ġshall": 2328,
      "ĠPe": 2329,
      "verse": 2330,
      "gu": 2331,
      "ĠMc": 2332,
      "erc": 2333,
      "Ġ50": 2334,
      "olution": 2335,
      "Ġblog": 2336,
      "Ġtext": 2337,
      "ĠBy": 2338,
      "Ġdescrib": 2339,
      "Ġneg": 2340,
      "Ġcard": 2341,
      "ĠChe": 2342,
      "itting": 2343,
      "ĠMin": 2344,
      "Ġpotential": 2345,
      "Ġtreatment": 2346,
      "Ġoffers": 2347,
      "uge": 2348,
      "my": 2349,
      "ĠTH": 2350,
      "Ġchanges": 2351,
      "Ġsense": 2352,
      "17": 2353,
      "minist": 2354,
      "Ġusually": 2355,
      "IC": 2356,
      "izing": 2357,
      "Ġcustomers": 2358,
      "ĠAf": 2359,
      "Ġprep": 2360,
      "itch": 2361,
      "Ġsoon": 2362,
      "ams": 2363,
      "Ġfunction": 2364,
      "fully": 2365,
      "Ġachie": 2366,
      "Ġprovided": 2367,
      "Ġfoot": 2368,
      "reg": 2369,
      "itten": 2370,
      "Ġdepend": 2371,
      "Ġpretty": 2372,
      "Ġnatural": 2373,
      "Ġ198": 2374,
      "iter": 2375,
      "Ġprovides": 2376,
      "ume": 2377,
      "Ġoutside": 2378,
      "ĠBar": 2379,
      "itional": 2380,
      "arget": 2381,
      "oph": 2382,
      "Ġsecurity": 2383,
      "Ġrecogn": 2384,
      "Ġlonger": 2385,
      "yl": 2386,
      "Ġcontinue": 2387,
      "Ġground": 2388,
      "Ġsle": 2389,
      "Ġmoment": 2390,
      "ĠWill": 2391,
      "Ġparty": 2392,
      "Ġblood": 2393,
      "ED": 2394,
      "Ġmodel": 2395,
      "iple": 2396,
      "Ġpict": 2397,
      "Ġassist": 2398,
      "ees": 2399,
      "na": 2400,
      "Ġfavor": 2401,
      "eth": 2402,
      "umb": 2403,
      "ĠNational": 2404,
      "22": 2405,
      "ĠAb": 2406,
      "head": 2407,
      "Ġtakes": 2408,
      "Ġred": 2409,
      "Ġthemselves": 2410,
      "Ġdefin": 2411,
      "face": 2412,
      "Ġhope": 2413,
      "ĠHar": 2414,
      "Ġpopular": 2415,
      "Ġmach": 2416,
      "osing": 2417,
      "Ġcourt": 2418,
      "Ġoptions": 2419,
      "Ġterms": 2420,
      "ze": 2421,
      "ĠCity": 2422,
      "Ġextra": 2423,
      "Ġsaw": 2424,
      "Ġseems": 2425,
      "Ġhon": 2426,
      "ĠWorld": 2427,
      "Ġpers": 2428,
      "ysis": 2429,
      "Ġsystems": 2430,
      "ĠGr": 2431,
      "Ġhost": 2432,
      "Ġattack": 2433,
      "Ġnorm": 2434,
      "time": 2435,
      "ĠOur": 2436,
      "atory": 2437,
      "aur": 2438,
      "ĠDr": 2439,
      "Ġcoun": 2440,
      "Ġoffice": 2441,
      "Ġcause": 2442,
      "Ġrate": 2443,
      "Ġinj": 2444,
      "ological": 2445,
      "Ġarticle": 2446,
      "Ġfig": 2447,
      "Ġmass": 2448,
      "Ġut": 2449,
      "ĠEd": 2450,
      "Ġobs": 2451,
      "ĠGe": 2452,
      "action": 2453,
      "irit": 2454,
      "Ġstaff": 2455,
      "oud": 2456,
      "Ġill": 2457,
      "Ġworth": 2458,
      "Ġimm": 2459,
      "Ġforward": 2460,
      "Ġstruct": 2461,
      "ief": 2462,
      "era": 2463,
      "Ġsoftware": 2464,
      "Ġweight": 2465,
      "come": 2466,
      "Ġdom": 2467,
      "ĠPart": 2468,
      "Ġsat": 2469,
      "Ġwhite": 2470,
      "Ġaccording": 2471,
      "Ġdest": 2472,
      "Ġprofessional": 2473,
      "ĠQu": 2474,
      "ĠAct": 2475,
      "resh": 2476,
      "Ġroad": 2477,
      "ĠJan": 2478,
      "Ġspeak": 2479,
      "Ġfinal": 2480,
      "Ġcop": 2481,
      "Ġknowledge": 2482,
      "ĠAg": 2483,
      "pri": 2484,
      "Ġbed": 2485,
      "Ġitself": 2486,
      "Ġcases": 2487,
      "Ġpolicy": 2488,
      "Ġeducation": 2489,
      "aving": 2490,
      "Ġgrowth": 2491,
      "anc": 2492,
      "Ġpolitical": 2493,
      "ades": 2494,
      "Ġpatients": 2495,
      "ables": 2496,
      "verage": 2497,
      "ĠCor": 2498,
      "overed": 2499,
      "Ġleave": 2500,
      "ĠSouth": 2501,
      "uth": 2502,
      "org": 2503,
      "Ġcontract": 2504,
      "Ġprim": 2505,
      "Ġproperty": 2506,
      "Ġtou": 2507,
      "iful": 2508,
      "25": 2509,
      "Ġsize": 2510,
      "iday": 2511,
      "ety": 2512,
      "ĠMark": 2513,
      "Ġsafe": 2514,
      "ĠJust": 2515,
      "like": 2516,
      "Ġemb": 2517,
      "Ġcoll": 2518,
      "obile": 2519,
      "iff": 2520,
      "ceed": 2521,
      "aining": 2522,
      "To": 2523,
      "Ġwide": 2524,
      "Ġdate": 2525,
      "anced": 2526,
      "Ġobject": 2527,
      "ĠPer": 2528,
      "Ġsens": 2529,
      "Ġlay": 2530,
      "ude": 2531,
      "oura": 2532,
      "ĠAmerica": 2533,
      "Ġinside": 2534,
      "vent": 2535,
      "atform": 2536,
      "Ġanim": 2537,
      "astic": 2538,
      "ufact": 2539,
      "Ġdeep": 2540,
      "ada": 2541,
      "Ġcorre": 2542,
      "Ġdecision": 2543,
      "ĠTw": 2544,
      "istic": 2545,
      "Ġchoose": 2546,
      "Ġexact": 2547,
      "ival": 2548,
      "Ġweeks": 2549,
      "Ġrad": 2550,
      "Ġinde": 2551,
      "ĠAust": 2552,
      "Ġviol": 2553,
      "Ġevents": 2554,
      "Ġselect": 2555,
      "Ġcontrib": 2556,
      "Ġquickly": 2557,
      "Ġprior": 2558,
      "hib": 2559,
      "Ġcollect": 2560,
      "Ġdog": 2561,
      "Ã©": 2562,
      "!!": 2563,
      "Ġrecent": 2564,
      "Ġ,": 2565,
      "Ġtable": 2566,
      "ĠCount": 2567,
      "inary": 2568,
      "Ġrequest": 2569,
      "put": 2570,
      "Ġheld": 2571,
      "ĠBo": 2572,
      "ĠWhile": 2573,
      "Ġlearning": 2574,
      "haps": 2575,
      "Ġfelt": 2576,
      "ĠGl": 2577,
      "Ġshows": 2578,
      "Ġability": 2579,
      "Ġphone": 2580,
      "Ġ#": 2581,
      "Ġjud": 2582,
      "Ġsend": 2583,
      "Ġaffect": 2584,
      "Ġfire": 2585,
      "Ġfa": 2586,
      "Ġlangu": 2587,
      "AC": 2588,
      "ule": 2589,
      "ĠKe": 2590,
      "Ġleaders": 2591,
      "ĠNorth": 2592,
      "Ġmedical": 2593,
      "Ġnational": 2594,
      "Ġadded": 2595,
      "Ġpractice": 2596,
      "Ġcouple": 2597,
      "Ġinstall": 2598,
      "Ġpaper": 2599,
      "oring": 2600,
      "Ġlives": 2601,
      "Ġbecame": 2602,
      "uses": 2603,
      "Ġbegan": 2604,
      "ĠDis": 2605,
      "ĠInc": 2606,
      "ID": 2607,
      "Ġdise": 2608,
      "iddle": 2609,
      "ĠNow": 2610,
      "Ġcreated": 2611,
      "Ġanyone": 2612,
      "ĠSm": 2613,
      "Ġtit": 2614,
      "Ġengine": 2615,
      "Ġrunning": 2616,
      "Ġlog": 2617,
      "Ġetc": 2618,
      "ĠIm": 2619,
      "Ġwoman": 2620,
      "Ġfast": 2621,
      "year": 2622,
      "Ġinn": 2623,
      "Ġnetwork": 2624,
      "Ġopportunity": 2625,
      "Ġwasn": 2626,
      "Ġplayers": 2627,
      "Ġregular": 2628,
      "Ġhands": 2629,
      "Ġmother": 2630,
      "ops": 2631,
      "21": 2632,
      "ening": 2633,
      "aily": 2634,
      "Ġtarget": 2635,
      "Ġapproach": 2636,
      "Ġensure": 2637,
      "Ġstra": 2638,
      "Ġreading": 2639,
      "Ġrights": 2640,
      "Ġapplication": 2641,
      "ĠDep": 2642,
      "ĠDes": 2643,
      "Ġeyes": 2644,
      "Ġswe": 2645,
      "Ġincludes": 2646,
      "Ġhtt": 2647,
      "Ġmyself": 2648,
      "Ġreceived": 2649,
      "ana": 2650,
      "Ġunique": 2651,
      "pper": 2652,
      "ached": 2653,
      "pose": 2654,
      "60": 2655,
      "Ġtotal": 2656,
      "Ġfight": 2657,
      "oice": 2658,
      "ns": 2659,
      "Ġsong": 2660,
      "Ġnecessary": 2661,
      "Ġlevels": 2662,
      "Ġmention": 2663,
      "Ġconditions": 2664,
      "Ġcredit": 2665,
      "Ġkids": 2666,
      "Ġbott": 2667,
      "Al": 2668,
      "Ġlost": 2669,
      "eter": 2670,
      "based": 2671,
      "Ġconc": 2672,
      "ming": 2673,
      "Ġlower": 2674,
      "Ġdrug": 2675,
      "Ġskin": 2676,
      "ĠWar": 2677,
      "ogle": 2678,
      "ris": 2679,
      "Ġlate": 2680,
      "fficient": 2681,
      "Ġmember": 2682,
      "Ġstri": 2683,
      "Ġ2012": 2684,
      "eal": 2685,
      "asons": 2686,
      "oke": 2687,
      "ederal": 2688,
      "Ġball": 2689,
      "Ġprotect": 2690,
      "Ġusers": 2691,
      "oe": 2692,
      "Ġdownload": 2693,
      "Ġbal": 2694,
      "Ġbase": 2695,
      "Ġinstead": 2696,
      "usion": 2697,
      "Ġintrodu": 2698,
      "ament": 2699,
      "olic": 2700,
      "Ġthroughout": 2701,
      "str": 2702,
      "Ġbooks": 2703,
      "?âĢĿ": 2704,
      "Ġdeg": 2705,
      "ĠPa": 2706,
      "Ġep": 2707,
      "Ġimmedi": 2708,
      "Ġoriginal": 2709,
      "RE": 2710,
      "iction": 2711,
      "Ġcook": 2712,
      "amed": 2713,
      "Ġtown": 2714,
      "Ġlegal": 2715,
      "aging": 2716,
      "Ġremember": 2717,
      "Ġcy": 2718,
      "Ġteac": 2719,
      "Ġofficial": 2720,
      "Ġhimself": 2721,
      "mit": 2722,
      "wise": 2723,
      "ĠTra": 2724,
      "Ġpred": 2725,
      "ournal": 2726,
      "Ġbi": 2727,
      "Ġattention": 2728,
      "Ġautom": 2729,
      "Ġgoes": 2730,
      "Ġattempt": 2731,
      "fl": 2732,
      "Ġsum": 2733,
      "Ġcomfort": 2734,
      "ĠDon": 2735,
      "Ġcountries": 2736,
      "reng": 2737,
      "Ġri": 2738,
      "Ġsales": 2739,
      "aign": 2740,
      "Ġadditional": 2741,
      "Ġupd": 2742,
      "ha": 2743,
      "Ġple": 2744,
      "ĠCour": 2745,
      "Ġplatform": 2746,
      "duct": 2747,
      "Ġconv": 2748,
      "Ġeasily": 2749,
      "Ġproduction": 2750,
      "Ġknew": 2751,
      "lier": 2752,
      "Ġworked": 2753,
      "ĠDav": 2754,
      "Ġplaying": 2755,
      "amb": 2756,
      "body": 2757,
      "Ġready": 2758,
      "onse": 2759,
      "Ġdefe": 2760,
      "Ġinvolved": 2761,
      "Ġeffective": 2762,
      "hood": 2763,
      "Ġsett": 2764,
      "Ġinflu": 2765,
      "Ġcustomer": 2766,
      "Ġbur": 2767,
      "icles": 2768,
      "Ġformer": 2769,
      "Ġchalleng": 2770,
      "Ġcosts": 2771,
      "Ġprivate": 2772,
      "Ġpric": 2773,
      "ĠSchool": 2774,
      "Ġwrong": 2775,
      "Ġmarketing": 2776,
      "itary": 2777,
      "cil": 2778,
      "ĠOct": 2779,
      "adem": 2780,
      "ĠStud": 2781,
      "Ġactivities": 2782,
      "ese": 2783,
      "ffe": 2784,
      "Ġnice": 2785,
      "Ġbenefits": 2786,
      "40": 2787,
      "Ġwritten": 2788,
      "erous": 2789,
      "Ġones": 2790,
      "Ġarri": 2791,
      "Ġdesigned": 2792,
      "Ġavoid": 2793,
      "itte": 2794,
      "Ġwonder": 2795,
      "Ġdating": 2796,
      "Ġreceive": 2797,
      "idered": 2798,
      "Ġhit": 2799,
      "ĠPresident": 2800,
      "Ġ40": 2801,
      "ĠPark": 2802,
      "Ġparents": 2803,
      "Ġgroups": 2804,
      "just": 2805,
      "Ġchoice": 2806,
      "Ġbeautiful": 2807,
      "Ġbank": 2808,
      "rought": 2809,
      "Ġwall": 2810,
      "Ġsurpr": 2811,
      "ĠMore": 2812,
      "erve": 2813,
      "ĠThen": 2814,
      "off": 2815,
      "king": 2816,
      "rem": 2817,
      "ĠSoc": 2818,
      "Ġrev": 2819,
      "ashing": 2820,
      "ences": 2821,
      "ĠHer": 2822,
      "Ġ2013": 2823,
      "itution": 2824,
      "ĠHealth": 2825,
      "Ġfit": 2826,
      "pril": 2827,
      "imum": 2828,
      "Ġgave": 2829,
      "Ġsepar": 2830,
      "idge": 2831,
      "Ġmanufact": 2832,
      "Ġhair": 2833,
      "Ġgoal": 2834,
      "Ġpath": 2835,
      "Ġdrive": 2836,
      "Ġevidence": 2837,
      "ĠEl": 2838,
      "ales": 2839,
      "Ġtrust": 2840,
      "Ġintegr": 2841,
      "Ġexcept": 2842,
      "Ġattend": 2843,
      "earch": 2844,
      "arter": 2845,
      "Ġcareer": 2846,
      "Ġstandard": 2847,
      "atives": 2848,
      "ivity": 2849,
      "aught": 2850,
      "isions": 2851,
      "Ġplease": 2852,
      "sych": 2853,
      "uary": 2854,
      "Ġhappy": 2855,
      "ĠAug": 2856,
      "Ġwrite": 2857,
      "Ġsqu": 2858,
      "Ġsaying": 2859,
      "hel": 2860,
      "iver": 2861,
      "bit": 2862,
      "Ġskills": 2863,
      "Ġchance": 2864,
      "ĠAfric": 2865,
      "Ġfair": 2866,
      "Ġthinking": 2867,
      "Ġinternational": 2868,
      "Ġbox": 2869,
      "illing": 2870,
      "Ġprograms": 2871,
      "Ġdep": 2872,
      "Ġversion": 2873,
      "ension": 2874,
      "Ġemer": 2875,
      "23": 2876,
      "Ġuser": 2877,
      "Ġsituation": 2878,
      "Ġoption": 2879,
      "Ġincluded": 2880,
      "ications": 2881,
      "Ġhor": 2882,
      "Ġdiv": 2883,
      "ĠEm": 2884,
      "ĠHouse": 2885,
      "Ġrelated": 2886,
      "Ġboard": 2887,
      "ĠSpe": 2888,
      "Ġbud": 2889,
      "ĠWest": 2890,
      "attle": 2891,
      "Ġgrad": 2892,
      "Ġapply": 2893,
      "ground": 2894,
      "ecause": 2895,
      "....": 2896,
      "oes": 2897,
      "irth": 2898,
      "Ġord": 2899,
      "Ġtypes": 2900,
      "hold": 2901,
      "ĠInt": 2902,
      "Ġmeeting": 2903,
      "Ġvia": 2904,
      "Ġmorning": 2905,
      "Ġconsidered": 2906,
      "oo": 2907,
      "Ġscreen": 2908,
      "ĠOf": 2909,
      "su": 2910,
      "Ġprevent": 2911,
      "Ġhear": 2912,
      "Ġnature": 2913,
      "Ġpropos": 2914,
      "lection": 2915,
      "Ġlooked": 2916,
      "ĠCenter": 2917,
      "Ġdraw": 2918,
      "Ġhuge": 2919,
      "ĠJes": 2920,
      "lebr": 2921,
      "Ġbuilt": 2922,
      "pite": 2923,
      "ray": 2924,
      "ĠReg": 2925,
      "Ġinsurance": 2926,
      "Ġdecided": 2927,
      "Ġphysical": 2928,
      "sequ": 2929,
      "Ġ2011": 2930,
      "Ġcam": 2931,
      "Ġpull": 2932,
      "Ġstudent": 2933,
      "Ġcompletely": 2934,
      "Ġheard": 2935,
      "Ġallows": 2936,
      "yond": 2937,
      "Ġcomputer": 2938,
      "ession": 2939,
      "Ġpark": 2940,
      "Ġrecently": 2941,
      "Ġstru": 2942,
      "ĠPar": 2943,
      "Ġpan": 2944,
      "Ġanswer": 2945,
      "Ġfeed": 2946,
      "ĠMarch": 2947,
      "Ġsometimes": 2948,
      "Ġglobal": 2949,
      "Ġslow": 2950,
      "ĠUs": 2951,
      "aint": 2952,
      "Ġeffects": 2953,
      "Ġsell": 2954,
      "Ġsubst": 2955,
      "Ġsaf": 2956,
      "Ġ2010": 2957,
      "amm": 2958,
      "Ġgets": 2959,
      "bor": 2960,
      "Ġlab": 2961,
      "Ġannoun": 2962,
      "Ġboy": 2963,
      "Ġstreng": 2964,
      "Ġbehav": 2965,
      "aged": 2966,
      "Ġsites": 2967,
      "ague": 2968,
      "ĠArt": 2969,
      "Ġlack": 2970,
      "airs": 2971,
      "Ġcertainly": 2972,
      "Ġcolor": 2973,
      "Ġdetails": 2974,
      "ett": 2975,
      "Ġfather": 2976,
      "Ġpen": 2977,
      "Ġ197": 2978,
      "Ġexec": 2979,
      "That": 2980,
      "Ġdark": 2981,
      "iring": 2982,
      "uel": 2983,
      "Ġmis": 2984,
      "cast": 2985,
      "ĠHere": 2986,
      "Ġdoor": 2987,
      "ought": 2988,
      "Ġur": 2989,
      "Ġtowards": 2990,
      "Ġpositive": 2991,
      "uted": 2992,
      "light": 2993,
      "ĠBrit": 2994,
      "Ġcampaign": 2995,
      "Ġcand": 2996,
      "ibly": 2997,
      "ĠFin": 2998,
      "arily": 2999,
      "ĠBu": 3000,
      "Ġveh": 3001,
      "azing": 3002,
      "Ġsil": 3003,
      "ĠJune": 3004,
      "Ġ2014": 3005,
      "Ġcross": 3006,
      "Ġstates": 3007,
      "Ġeconomic": 3008,
      "OU": 3009,
      "Ġadminist": 3010,
      "Ġturned": 3011,
      "Ġextreme": 3012,
      "Ġanalysis": 3013,
      "Ġresources": 3014,
      "itation": 3015,
      "Ġregul": 3016,
      "aby": 3017,
      "With": 3018,
      "Ġlanguage": 3019,
      "ĠSept": 3020,
      "Ġencoura": 3021,
      "Ġrout": 3022,
      "Ġspeed": 3023,
      "Ġtour": 3024,
      "enty": 3025,
      "Ġideas": 3026,
      "Ġgives": 3027,
      "Ġconvers": 3028,
      "ivil": 3029,
      "right": 3030,
      "Ġmix": 3031,
      "ky": 3032,
      "Ġitems": 3033,
      "Ġdrink": 3034,
      "ĠGerm": 3035,
      "Ġconsist": 3036,
      "OT": 3037,
      "Ġsleep": 3038,
      "AM": 3039,
      "24": 3040,
      "Ġlat": 3041,
      "Ġinvestig": 3042,
      "Ġsus": 3043,
      "nds": 3044,
      "Ġindividuals": 3045,
      "aves": 3046,
      "ĠBro": 3047,
      "Ġsn": 3048,
      "Ġmag": 3049,
      "Ġaverage": 3050,
      "Ġparts": 3051,
      "Ġplant": 3052,
      "Ġlooks": 3053,
      "Ġmodern": 3054,
      "nes": 3055,
      "Ġinteresting": 3056,
      "Ġ:": 3057,
      "cies": 3058,
      "Ġprogress": 3059,
      "Ġstyle": 3060,
      "Ġdevice": 3061,
      "Ġ21": 3062,
      "oms": 3063,
      "Ġcool": 3064,
      "sec": 3065,
      "hern": 3066,
      "Ġsource": 3067,
      "Ġhop": 3068,
      "Ġround": 3069,
      "Ġresponse": 3070,
      "OS": 3071,
      "Ġlif": 3072,
      "Ġbrought": 3073,
      "iam": 3074,
      "Ġtools": 3075,
      "Ġcurrently": 3076,
      "Ġdocument": 3077,
      "My": 3078,
      "Ġenter": 3079,
      "ING": 3080,
      "ĠAcc": 3081,
      "ĠOb": 3082,
      "ĠFrom": 3083,
      "Ġsold": 3084,
      "Ġgiving": 3085,
      "ux": 3086,
      "ĠEnglish": 3087,
      "ĠSch": 3088,
      "Ġvict": 3089,
      "rences": 3090,
      "iding": 3091,
      "Ġprint": 3092,
      "Ġsection": 3093,
      "atur": 3094,
      "edd": 3095,
      "Ġflow": 3096,
      "Ġconcept": 3097,
      "Ġmatch": 3098,
      "ipment": 3099,
      "Ġcomplex": 3100,
      "Ġtele": 3101,
      "vant": 3102,
      "ĠSw": 3103,
      "itely": 3104,
      "artment": 3105,
      "Ġvariety": 3106,
      "rel": 3107,
      "imately": 3108,
      "ek": 3109,
      "ĠChar": 3110,
      "Ġcat": 3111,
      "avy": 3112,
      "Ġdigital": 3113,
      "ened": 3114,
      "cription": 3115,
      "One": 3116,
      "Ġled": 3117,
      "het": 3118,
      "Ġdead": 3119,
      "Ġge": 3120,
      "ĠApril": 3121,
      "Ġrelig": 3122,
      "ny": 3123,
      "Ġaware": 3124,
      "Ġaw": 3125,
      "'d": 3126,
      "urt": 3127,
      "Ġplayed": 3128,
      "Ġmultiple": 3129,
      "ĠMus": 3130,
      "Ġexcell": 3131,
      "ĠMich": 3132,
      "rs": 3133,
      "Ġ...": 3134,
      "alt": 3135,
      "Ġten": 3136,
      "Ġdirectly": 3137,
      "Ġleading": 3138,
      "oul": 3139,
      "Ġpressure": 3140,
      "ĠAustral": 3141,
      "ospital": 3142,
      "Ġexerc": 3143,
      "ĠHigh": 3144,
      "At": 3145,
      "ĠBlack": 3146,
      "ishing": 3147,
      "\".": 3148,
      "):": 3149,
      "ĠJesus": 3150,
      "Ġinterview": 3151,
      "Ġsafety": 3152,
      "Ġlimited": 3153,
      "Ġplans": 3154,
      "ĠCons": 3155,
      "Ġimplement": 3156,
      "Ġtouch": 3157,
      "Ġorganization": 3158,
      "Ġadvant": 3159,
      "Ġ2016": 3160,
      "Ġbroad": 3161,
      "ĠCourt": 3162,
      "Ġemot": 3163,
      "antly": 3164,
      "ittee": 3165,
      "Ġoffe": 3166,
      "Ġprojects": 3167,
      "error": 3168,
      "ĠChina": 3169,
      "Ġpresident": 3170,
      "Ġvac": 3171,
      "Ġprec": 3172,
      "aches": 3173,
      "Ġson": 3174,
      "aries": 3175,
      "Ġfeeling": 3176,
      "ategy": 3177,
      "Ġ2015": 3178,
      "iment": 3179,
      "rast": 3180,
      "ĠJuly": 3181,
      "Ġdaily": 3182,
      "Ġhelps": 3183,
      "Ġmid": 3184,
      "Ġfrequ": 3185,
      "oming": 3186,
      "Ġ*": 3187,
      "Ġpurpose": 3188,
      "Ġinsp": 3189,
      "Ġthreat": 3190,
      "ĠEven": 3191,
      "Ġparticularly": 3192,
      "more": 3193,
      "orks": 3194,
      "âĢĿ.": 3195,
      "mission": 3196,
      "Ġhighly": 3197,
      "Ġunderstanding": 3198,
      "Ġsort": 3199,
      "80": 3200,
      "Ġdetail": 3201,
      "Ġcelebr": 3202,
      "ĠCounty": 3203,
      "Re": 3204,
      "EC": 3205,
      "ests": 3206,
      "zy": 3207,
      "Ġtal": 3208,
      "Ġactivity": 3209,
      "Ġreported": 3210,
      "Ġreve": 3211,
      "ham": 3212,
      "Ġsun": 3213,
      "rote": 3214,
      "ĠMon": 3215,
      "Ġexpected": 3216,
      "ĠOff": 3217,
      "Ġexactly": 3218,
      "Ġstress": 3219,
      "Ġmat": 3220,
      "Ġrespond": 3221,
      "Ġimag": 3222,
      "ĠFeb": 3223,
      "rael": 3224,
      "ma": 3225,
      "aly": 3226,
      "Ġoccur": 3227,
      "ression": 3228,
      "Ġculture": 3229,
      "Ġimage": 3230,
      "arr": 3231,
      "iles": 3232,
      "Ġrock": 3233,
      "Ġcarry": 3234,
      "ica": 3235,
      "Ġhol": 3236,
      "Ġreach": 3237,
      "Ġdisease": 3238,
      "Ġclick": 3239,
      "Ġfat": 3240,
      "Ġqual": 3241,
      "vey": 3242,
      "chan": 3243,
      "Ġdepart": 3244,
      "OM": 3245,
      "Ġenh": 3246,
      "Ġsummer": 3247,
      "Ġsche": 3248,
      "Ġprot": 3249,
      "Ġfell": 3250,
      "Ġblock": 3251,
      "Ġspirit": 3252,
      "ĠSan": 3253,
      "ĠVal": 3254,
      "Ġappropri": 3255,
      "Ġsave": 3256,
      "Ġsolution": 3257,
      "enge": 3258,
      "ocr": 3259,
      "Ġx": 3260,
      "omen": 3261,
      "ĠâĢ¦": 3262,
      "itute": 3263,
      "Ġ23": 3264,
      "itc": 3265,
      "ĠGener": 3266,
      "Ġclients": 3267,
      "Ġcenter": 3268,
      "apan": 3269,
      "ĠAdd": 3270,
      "ĠAN": 3271,
      "ĠRuss": 3272,
      "oly": 3273,
      "Ġdifference": 3274,
      "Ġfresh": 3275,
      "Ġdemon": 3276,
      "Ġalone": 3277,
      "ĠMost": 3278,
      "Ġaltern": 3279,
      "aker": 3280,
      "Ġ22": 3281,
      "ĠKing": 3282,
      "Ġassess": 3283,
      "Ġstuff": 3284,
      "olute": 3285,
      "ovember": 3286,
      "Ġpiece": 3287,
      "Ġdistrib": 3288,
      "Ġcondition": 3289,
      "ĠSci": 3290,
      "Ġeffort": 3291,
      "Ġ2017": 3292,
      "ipe": 3293,
      "ĠTHE": 3294,
      "ĠTV": 3295,
      "Ġlocation": 3296,
      "band": 3297,
      "Ġpromot": 3298,
      "Ġmovie": 3299,
      "Ġarch": 3300,
      "Ġfix": 3301,
      "Ġcapt": 3302,
      "isc": 3303,
      "Ġdro": 3304,
      "ores": 3305,
      "Ġ2008": 3306,
      "cember": 3307,
      "ancy": 3308,
      "Ġstage": 3309,
      "Ġpublished": 3310,
      "add": 3311,
      "Ġtalking": 3312,
      "ĠAc": 3313,
      "ara": 3314,
      "ĠRed": 3315,
      "Ġpaid": 3316,
      "Ġfinally": 3317,
      "aste": 3318,
      "Ġfear": 3319,
      "Ġdeveloped": 3320,
      "Ġplaces": 3321,
      "Ġinform": 3322,
      "Ġanaly": 3323,
      "Ġrelease": 3324,
      "Ġ2009": 3325,
      "Ġspent": 3326,
      "Ġbeginning": 3327,
      "ĠPat": 3328,
      "ĠEvery": 3329,
      "Ġbeyond": 3330,
      "Ġmaterials": 3331,
      "Ġemployees": 3332,
      "lim": 3333,
      "Ġfeet": 3334,
      "asc": 3335,
      "Ġpolice": 3336,
      "Ġstarting": 3337,
      "Ġtried": 3338,
      "Ġmount": 3339,
      "Ġdisplay": 3340,
      "ĠDay": 3341,
      "Ġsuccessful": 3342,
      "Ġprevious": 3343,
      "Ġmaintain": 3344,
      "Ġfem": 3345,
      "gen": 3346,
      "Ġund": 3347,
      "ĠDem": 3348,
      "Ġpurchase": 3349,
      "Ġproviding": 3350,
      "mitted": 3351,
      "ĠFirst": 3352,
      "mercial": 3353,
      "key": 3354,
      "Ġstrateg": 3355,
      "Ġachieve": 3356,
      "Ġacqu": 3357,
      "ari": 3358,
      "Ġmeaning": 3359,
      "Ġdire": 3360,
      "Ġsubs": 3361,
      "Ġorganiz": 3362,
      "Ġfine": 3363,
      "Ġmobile": 3364,
      "ĠUK": 3365,
      "ĠGoogle": 3366,
      "ram": 3367,
      "iforn": 3368,
      "Ġstudies": 3369,
      "Ġnation": 3370,
      "Ġult": 3371,
      "Ġincreased": 3372,
      "itable": 3373,
      "Ġeat": 3374,
      "____": 3375,
      "Ġstories": 3376,
      "uk": 3377,
      "Ġincreasing": 3378,
      "âĢ¢": 3379,
      "Ġdemand": 3380,
      "Ġshown": 3381,
      "Ġdream": 3382,
      "Ġliter": 3383,
      "Ġcorrect": 3384,
      "Ġforce": 3385,
      "Ġcapital": 3386,
      "All": 3387,
      "Ġalthough": 3388,
      "Ġhistor": 3389,
      "Ġplayer": 3390,
      "ĠAre": 3391,
      "Ġcasino": 3392,
      "Ġter": 3393,
      "Ġgrowing": 3394,
      "sp": 3395,
      "ously": 3396,
      "Ġmoving": 3397,
      "ĠAugust": 3398,
      "ĠAssoci": 3399,
      "Ġaccom": 3400,
      "atever": 3401,
      "After": 3402,
      "Be": 3403,
      "ald": 3404,
      "usiness": 3405,
      "Ġfavorite": 3406,
      "Ġassociated": 3407,
      "Ġmaybe": 3408,
      "Ġden": 3409,
      "gar": 3410,
      "ilies": 3411,
      "reed": 3412,
      "Ġadult": 3413,
      "ĠDepartment": 3414,
      "Ġwhose": 3415,
      "ondon": 3416,
      "ĠSim": 3417,
      "Ġneigh": 3418,
      "Ġwants": 3419,
      "ĠInternational": 3420,
      "Ġamazing": 3421,
      "ĠII": 3422,
      "Ġtraditional": 3423,
      "Ġcollege": 3424,
      "ET": 3425,
      "ran": 3426,
      "ester": 3427,
      "Ġfile": 3428,
      "undred": 3429,
      "EL": 3430,
      "99": 3431,
      "imin": 3432,
      "ION": 3433,
      "ĠSen": 3434,
      "ĠJanuary": 3435,
      "Ġwood": 3436,
      "Ġfirm": 3437,
      "Ġindic": 3438,
      "Ġthous": 3439,
      "Ġdoub": 3440,
      "Ġhous": 3441,
      "Ġfully": 3442,
      "orge": 3443,
      "Ġwife": 3444,
      "Ġindepend": 3445,
      "Ġgreen": 3446,
      "ĠLaw": 3447,
      "ifornia": 3448,
      "Ġhour": 3449,
      "Ġreasons": 3450,
      "ĠWell": 3451,
      "Ġnearly": 3452,
      "ĠSer": 3453,
      "ength": 3454,
      "dom": 3455,
      "Ġopin": 3456,
      "Ġaspect": 3457,
      "rie": 3458,
      "ĠSeptember": 3459,
      "Ġlic": 3460,
      "Ġvoice": 3461,
      "Ġstraight": 3462,
      "Ġconnect": 3463,
      "lied": 3464,
      "ashington": 3465,
      "ĠCoun": 3466,
      "www": 3467,
      "Ġband": 3468,
      "Ġclos": 3469,
      "Ġperhaps": 3470,
      "Ġnormal": 3471,
      "Ġtrade": 3472,
      "uate": 3473,
      "mon": 3474,
      "bl": 3475,
      "Ġallowed": 3476,
      "ronic": 3477,
      "Ġfloor": 3478,
      "aughter": 3479,
      "Ġgold": 3480,
      "Ġpartners": 3481,
      "ĠIsrael": 3482,
      "idents": 3483,
      "Ġbenefit": 3484,
      "wood": 3485,
      "Ġmilitary": 3486,
      "ĠOctober": 3487,
      "Ġver": 3488,
      "IL": 3489,
      "ĠNet": 3490,
      "Ġmachine": 3491,
      "Ġnote": 3492,
      "Ġvot": 3493,
      "Ġmessage": 3494,
      "Ġbudget": 3495,
      "Ġcells": 3496,
      "Ġproced": 3497,
      "Ġserious": 3498,
      "Ġimmediately": 3499,
      "Ġrules": 3500,
      "Ġhealthy": 3501,
      "Ġ2018": 3502,
      "Ġinstru": 3503,
      "ĠIndia": 3504,
      "Ġoverall": 3505,
      "Ġrace": 3506,
      "Ġcreating": 3507,
      "Ġstrugg": 3508,
      "IG": 3509,
      "etic": 3510,
      "Ġinvestment": 3511,
      "No": 3512,
      "Ġgreater": 3513,
      "utive": 3514,
      "ĠEar": 3515,
      "aces": 3516,
      "Ġcouldn": 3517,
      "Ġscient": 3518,
      "Ġbra": 3519,
      "unk": 3520,
      "Ġtruth": 3521,
      "Ġessential": 3522,
      "izes": 3523,
      "rep": 3524,
      "Ġspot": 3525,
      "iation": 3526,
      "Ġtemper": 3527,
      "Ġexcellent": 3528,
      "ani": 3529,
      "Ġstrategy": 3530,
      "lin": 3531,
      "Ġcomment": 3532,
      "Ġlatest": 3533,
      "Ġequipment": 3534,
      "Ġbasis": 3535,
      "ĠAut": 3536,
      "Ġ28": 3537,
      "Ġhappened": 3538,
      "Ġbirth": 3539,
      "bur": 3540,
      "Ġregion": 3541,
      "Ġdefinitely": 3542,
      "Ġsurv": 3543,
      "estern": 3544,
      "EO": 3545,
      "arc": 3546,
      "They": 3547,
      "Ġfeature": 3548,
      "board": 3549,
      "Ġdiet": 3550,
      "Ġexpert": 3551,
      "Ph": 3552,
      "Ġrequirements": 3553,
      "ael": 3554,
      "Ġprefer": 3555,
      "Ġtrip": 3556,
      "Ġpoor": 3557,
      "Ġpatient": 3558,
      "ĠFace": 3559,
      "Ġstock": 3560,
      "ĠDirect": 3561,
      "rant": 3562,
      "ords": 3563,
      "Sh": 3564,
      "atively": 3565,
      "isf": 3566,
      "Ġprem": 3567,
      "Ġwarm": 3568,
      "AP": 3569,
      "down": 3570,
      "ĠPol": 3571,
      "Ġrates": 3572,
      "Ġgoals": 3573,
      "Ġ27": 3574,
      "Ġ60": 3575,
      "Ġdamage": 3576,
      "ĠJapan": 3577,
      "Ġwish": 3578,
      "Ġremain": 3579,
      "Ġcru": 3580,
      "ĠGovern": 3581,
      "Ġded": 3582,
      "Ġsym": 3583,
      "Ġearlier": 3584,
      "force": 3585,
      "Ġeye": 3586,
      "Ġcode": 3587,
      "Ġchanged": 3588,
      "Ġmiddle": 3589,
      "ĠPaul": 3590,
      "Ġreduce": 3591,
      "ĠNovember": 3592,
      "Ġbusinesses": 3593,
      "Ġcry": 3594,
      "Ġsociety": 3595,
      "Ġuses": 3596,
      "Ġinternet": 3597,
      "Ġgas": 3598,
      "aling": 3599,
      "Ġgenerally": 3600,
      "Ġsen": 3601,
      "ville": 3602,
      "ford": 3603,
      "erved": 3604,
      "itter": 3605,
      "Ġ26": 3606,
      "lying": 3607,
      "rench": 3608,
      "Ġcharge": 3609,
      "Ġtur": 3610,
      "Ġextend": 3611,
      "Ġinterested": 3612,
      "ĠJe": 3613,
      "Ġdoll": 3614,
      "Ġnumbers": 3615,
      "ocks": 3616,
      "Ġplanning": 3617,
      "isl": 3618,
      "ares": 3619,
      "itiz": 3620,
      "ĠDecember": 3621,
      "ĠCommun": 3622,
      "Ġregist": 3623,
      "vis": 3624,
      "ĠCalifornia": 3625,
      "Ġchurch": 3626,
      "Ġobv": 3627,
      "oper": 3628,
      "zz": 3629,
      "Ġdang": 3630,
      "Ġclin": 3631,
      "Ġinnov": 3632,
      "Ġschools": 3633,
      "rapy": 3634,
      "nded": 3635,
      "ĠDavid": 3636,
      "Ġbasic": 3637,
      "Ġwrote": 3638,
      "ĠIN": 3639,
      "Ġpsych": 3640,
      "arant": 3641,
      "Ġfaith": 3642,
      "Ġscience": 3643,
      "Ġhundred": 3644,
      "ography": 3645,
      "Ġmoved": 3646,
      "Ġnotice": 3647,
      "iant": 3648,
      "Ġnut": 3649,
      "Ġfra": 3650,
      "Ġcorpor": 3651,
      "ruary": 3652,
      "ĠWashington": 3653,
      "Ġreflect": 3654,
      "Ġrent": 3655,
      "Ġcopy": 3656,
      "ĠLondon": 3657,
      "Ġopportunities": 3658,
      "Ġpopulation": 3659,
      "change": 3660,
      "Ġcancer": 3661,
      "Ġdecl": 3662,
      "Ġfactors": 3663,
      "Ġtruly": 3664,
      "Ġtherefore": 3665,
      "ĠMany": 3666,
      "Ġmeasure": 3667,
      "rief": 3668,
      "Ġaren": 3669,
      "27": 3670,
      "vest": 3671,
      "Ġmer": 3672,
      "term": 3673,
      "Ġadvert": 3674,
      "ounds": 3675,
      "Ġoffered": 3676,
      "Ġabsolute": 3677,
      "ĠAlso": 3678,
      "ida": 3679,
      "Ġcash": 3680,
      "ĠWind": 3681,
      "Ġrestaur": 3682,
      "Ġfamilies": 3683,
      "Ġprices": 3684,
      "Ġmax": 3685,
      "Ġroll": 3686,
      "Ġtransfer": 3687,
      "Ġbrain": 3688,
      "unday": 3689,
      "mark": 3690,
      "ĠRepublic": 3691,
      "Ġdeliver": 3692,
      "Ġincome": 3693,
      "Ġkn": 3694,
      "ĠColle": 3695,
      "Ġhttp": 3696,
      "Ġpowerful": 3697,
      "Ġlocated": 3698,
      "Ġmovement": 3699,
      "Ġsurface": 3700,
      "Ġfederal": 3701,
      "Ġcontain": 3702,
      "Ġconsult": 3703,
      "rows": 3704,
      "Ġshot": 3705,
      "omb": 3706,
      "Ġbag": 3707,
      "ube": 3708,
      "place": 3709,
      "reci": 3710,
      "Ġaim": 3711,
      "Ġactive": 3712,
      "rupt": 3713,
      "mas": 3714,
      "ĠLib": 3715,
      "raft": 3716,
      "Ġcompon": 3717,
      "Ġfarm": 3718,
      "Ġpattern": 3719,
      "?\"": 3720,
      "iance": 3721,
      "Ġdegree": 3722,
      "istics": 3723,
      "Ġapart": 3724,
      "ĠLord": 3725,
      "ĠTrans": 3726,
      "Ġteams": 3727,
      "Ġeasier": 3728,
      "see": 3729,
      "ĠLet": 3730,
      "ĠOther": 3731,
      "Ġcompared": 3732,
      "cul": 3733,
      "Ġpicture": 3734,
      "Ġguide": 3735,
      "ĠService": 3736,
      "Ġclub": 3737,
      "Ġwait": 3738,
      "Ġcollection": 3739,
      "anch": 3740,
      "Ġresponsible": 3741,
      "Ġbillion": 3742,
      "ĠJew": 3743,
      "eria": 3744,
      "ruit": 3745,
      "Ġ=": 3746,
      "Ġappropriate": 3747,
      "45": 3748,
      "Ġlines": 3749,
      "Ġload": 3750,
      "ĠMet": 3751,
      "Ġfollowed": 3752,
      "Cl": 3753,
      "itude": 3754,
      "Ġguy": 3755,
      "order": 3756,
      "Ġgone": 3757,
      "Ġpet": 3758,
      "Ġvirt": 3759,
      "Ġchem": 3760,
      "ĠJack": 3761,
      "ager": 3762,
      "Ġcandid": 3763,
      "Ġeval": 3764,
      "Ġproduce": 3765,
      "Ġeight": 3766,
      "Ġshoot": 3767,
      "Ġdevices": 3768,
      "Ġstructure": 3769,
      "ils": 3770,
      "hest": 3771,
      "ĠAir": 3772,
      "Ġreleased": 3773,
      "ault": 3774,
      "lear": 3775,
      "field": 3776,
      "26": 3777,
      "Ġattract": 3778,
      "Ġpeace": 3779,
      "ken": 3780,
      "Our": 3781,
      "Ġsuff": 3782,
      "Ġ2007": 3783,
      "Ġstrength": 3784,
      "ĠRead": 3785,
      "ifying": 3786,
      "ĠWhy": 3787,
      "Ġseven": 3788,
      "amic": 3789,
      "Ġbaby": 3790,
      "ĠPal": 3791,
      "Ġcert": 3792,
      "Ġmechan": 3793,
      "Ġprimary": 3794,
      "Ġtend": 3795,
      "Ġsteps": 3796,
      "Ġlearned": 3797,
      "Ġbrother": 3798,
      "ĠFree": 3799,
      "ĠLa": 3800,
      "Ġadjust": 3801,
      "hens": 3802,
      "bum": 3803,
      "Ġadop": 3804,
      "Ġdry": 3805,
      "gment": 3806,
      "Ġrepe": 3807,
      "ĠEuropean": 3808,
      "rial": 3809,
      "28": 3810,
      "venue": 3811,
      "Ġargu": 3812,
      "Ġkept": 3813,
      "Ġspread": 3814,
      "Ġgrand": 3815,
      "Ġapplications": 3816,
      "Ġtitle": 3817,
      "Ġefforts": 3818,
      "iny": 3819,
      "Ġanti": 3820,
      "Ġmethods": 3821,
      "Ġadvice": 3822,
      "orage": 3823,
      "ĠEast": 3824,
      "ban": 3825,
      "Ġhelped": 3826,
      "Ġtrou": 3827,
      "Ġcold": 3828,
      "Ġhus": 3829,
      "Ġ+": 3830,
      "Ġsolutions": 3831,
      "Ġheat": 3832,
      "Ġpros": 3833,
      "lig": 3834,
      "35": 3835,
      "clus": 3836,
      "Is": 3837,
      "Ġaudience": 3838,
      "vision": 3839,
      "wide": 3840,
      "ulf": 3841,
      "Ġowners": 3842,
      "Ġsust": 3843,
      "Ġcritical": 3844,
      "icip": 3845,
      "Ġchallenge": 3846,
      "Ġir": 3847,
      "Ġmicro": 3848,
      "ĠTechn": 3849,
      "ĠCanada": 3850,
      "Ġguys": 3851,
      "Ġcontinued": 3852,
      "Ġsupply": 3853,
      "pective": 3854,
      "Ġregarding": 3855,
      "Ġestablish": 3856,
      "She": 3857,
      "Ġbreat": 3858,
      "Ġsmart": 3859,
      "ĠMor": 3860,
      "bed": 3861,
      "ĠUp": 3862,
      "While": 3863,
      "Ġslight": 3864,
      "set": 3865,
      "Ġrequires": 3866,
      "ĠChristian": 3867,
      "Ġwild": 3868,
      "Ġaccur": 3869,
      "text": 3870,
      "Ġcommercial": 3871,
      "Ġharm": 3872,
      "aming": 3873,
      "ĠProf": 3874,
      "Ġtoward": 3875,
      "ĠWhite": 3876,
      "ĠGroup": 3877,
      "AD": 3878,
      "ĠCompany": 3879,
      "Now": 3880,
      "Ġcateg": 3881,
      "ĠStreet": 3882,
      "OL": 3883,
      "ties": 3884,
      "Ġextremely": 3885,
      "aturday": 3886,
      "Ġreports": 3887,
      "Ġdescribed": 3888,
      "iling": 3889,
      "Ġunf": 3890,
      "ech": 3891,
      "Ġunc": 3892,
      "aled": 3893,
      "Ġpow": 3894,
      "Ġutil": 3895,
      "bon": 3896,
      "Ġserve": 3897,
      "ĠChurch": 3898,
      "90": 3899,
      "ĠFacebook": 3900,
      "Ġesc": 3901,
      "Ġframe": 3902,
      "acity": 3903,
      "ocol": 3904,
      "inner": 3905,
      "Ġworkers": 3906,
      "ĠPre": 3907,
      "Ġstatement": 3908,
      "Ġing": 3909,
      "Ġloved": 3910,
      "Ġimages": 3911,
      "ĠWeb": 3912,
      "Ġcivil": 3913,
      "oday": 3914,
      "well": 3915,
      "Ġreality": 3916,
      "Ġdemonstr": 3917,
      "using": 3918,
      "ĠOut": 3919,
      "inated": 3920,
      "ĠBest": 3921,
      "ustr": 3922,
      "Ġfigure": 3923,
      "Ġlarger": 3924,
      "entially": 3925,
      "ĠResearch": 3926,
      "ĠIndian": 3927,
      "Ġrefer": 3928,
      "opping": 3929,
      "Ġwel": 3930,
      "arden": 3931,
      "PS": 3932,
      "Ex": 3933,
      "osis": 3934,
      "ĠInternet": 3935,
      "Pro": 3936,
      "Ġuseful": 3937,
      "Ġpages": 3938,
      "Ġactual": 3939,
      "duc": 3940,
      "raw": 3941,
      "Ġdirector": 3942,
      "Ġtransport": 3943,
      "Ġeconomy": 3944,
      "rely": 3945,
      "ĠOF": 3946,
      "Ġprotection": 3947,
      "inger": 3948,
      "Ġjobs": 3949,
      "Ġoccas": 3950,
      "Ġahead": 3951,
      "Ġbill": 3952,
      "Ġwat": 3953,
      "Ġthus": 3954,
      "ĠSystem": 3955,
      "olf": 3956,
      "que": 3957,
      "orrow": 3958,
      "Ġcontinu": 3959,
      "Ġwouldn": 3960,
      "ĠBook": 3961,
      "ĠBecause": 3962,
      "ĠBusiness": 3963,
      "Ġimpl": 3964,
      "Ġsetting": 3965,
      "Ġcentury": 3966,
      "ĠServices": 3967,
      "Ġsale": 3968,
      "Ġsatisf": 3969,
      "Ġdress": 3970,
      "Ġmist": 3971,
      "Ġconstruction": 3972,
      "100": 3973,
      "ĠCong": 3974,
      "ourney": 3975,
      "ĠFebruary": 3976,
      "Ġadvantage": 3977,
      "ĠRet": 3978,
      "Ġlength": 3979,
      "ĠIS": 3980,
      "ĠGreat": 3981,
      "Ġmentioned": 3982,
      "Ġparties": 3983,
      "house": 3984,
      "ĠSl": 3985,
      "Ġestablished": 3986,
      "Ġble": 3987,
      "ero": 3988,
      "70": 3989,
      "Ġsurround": 3990,
      "Ġearth": 3991,
      "Ġborn": 3992,
      "Ġarr": 3993,
      "aven": 3994,
      "Ġpayment": 3995,
      "Ġseeing": 3996,
      "ĠAny": 3997,
      "Ġbottom": 3998,
      "Ġseemed": 3999,
      "istry": 4000,
      "IV": 4001,
      "ĠBritish": 4002,
      "Ġstick": 4003,
      "ĠJames": 4004,
      "Ġpartner": 4005,
      "Ġgirls": 4006,
      "Ġconnection": 4007,
      "BC": 4008,
      "By": 4009,
      "Ġcharacters": 4010,
      "ters": 4011,
      "Ġbeg": 4012,
      "ĠWork": 4013,
      "Ġdisapp": 4014,
      "Ġalle": 4015,
      "29": 4016,
      "ooth": 4017,
      "Ġstar": 4018,
      "icine": 4019,
      "imal": 4020,
      "Ġbon": 4021,
      "Ġappreci": 4022,
      "ĠGood": 4023,
      "ico": 4024,
      "Ġforeign": 4025,
      "ĠMac": 4026,
      "Ġprofession": 4027,
      "ĠGet": 4028,
      "apter": 4029,
      "kes": 4030,
      "riage": 4031,
      "Ġclot": 4032,
      "Ġclient": 4033,
      "ĠCollege": 4034,
      "Ġknows": 4035,
      "Ġmill": 4036,
      "ashion": 4037,
      "ady": 4038,
      "Ġclearly": 4039,
      "ĠGreen": 4040,
      "Ġ2020": 4041,
      "Ġang": 4042,
      "Ġresist": 4043,
      "Ġclaims": 4044,
      "Ġwhatever": 4045,
      "ĠBen": 4046,
      "ST": 4047,
      "âĢĿ,": 4048,
      "eed": 4049,
      "Ġglass": 4050,
      "ls": 4051,
      "ĠRom": 4052,
      "Ġbecomes": 4053,
      "Ġletter": 4054,
      "Ġlimit": 4055,
      "ĠSee": 4056,
      "Ġstatus": 4057,
      "Ġgar": 4058,
      "itchen": 4059,
      "Ġlose": 4060,
      "iled": 4061,
      "Ġtick": 4062,
      "ĠSunday": 4063,
      "gal": 4064,
      "Ġolder": 4065,
      "Ġnovel": 4066,
      "Ġsports": 4067,
      "Ġsecret": 4068,
      "Ġweeke": 4069,
      "ĠCouncil": 4070,
      "Ġcast": 4071,
      "rig": 4072,
      "pen": 4073,
      "Ġhom": 4074,
      "ĠFriday": 4075,
      "Ġpassed": 4076,
      "Ġmeant": 4077,
      "ologies": 4078,
      "Ġguid": 4079,
      "Ġfinding": 4080,
      "NA": 4081,
      "Ġdetermine": 4082,
      "ĠNews": 4083,
      "gn": 4084,
      "Ġ2019": 4085,
      "ĠMod": 4086,
      "Ġafford": 4087,
      "ĠAnt": 4088,
      "Ġblue": 4089,
      "men": 4090,
      "ĠSupp": 4091,
      "Ġexisting": 4092,
      "useum": 4093,
      "Ġalbum": 4094,
      "Ġlargest": 4095,
      "Ġexpand": 4096,
      "Ġmodels": 4097,
      "Ġorganizations": 4098,
      "ĠRec": 4099,
      "enses": 4100,
      "Ġnamed": 4101,
      "itect": 4102,
      "Ġeth": 4103,
      "ĠOver": 4104,
      "anging": 4105,
      "Ġhar": 4106,
      "Ġotherwise": 4107,
      "Ġmatt": 4108,
      "Ġhusband": 4109,
      "la": 4110,
      "Ġhospital": 4111,
      "Ġlots": 4112,
      "actions": 4113,
      "ĠProgram": 4114,
      "udd": 4115,
      "Ġdoctor": 4116,
      "Ġmajority": 4117,
      "care": 4118,
      "ĠCO": 4119,
      "inese": 4120,
      "Ġelements": 4121,
      "ĠMarket": 4122,
      "hem": 4123,
      "osure": 4124,
      "Ġtrial": 4125,
      "ĠRem": 4126,
      "ĠDist": 4127,
      "ym": 4128,
      "Ġcup": 4129,
      "ĠAlthough": 4130,
      "Ġpray": 4131,
      "Ġ29": 4132,
      "ĠTex": 4133,
      "Ġchann": 4134,
      "Ġphotos": 4135,
      "Ġreb": 4136,
      "ection": 4137,
      "Ġtrain": 4138,
      "Ġcommunication": 4139,
      "ij": 4140,
      "Ġhappens": 4141,
      "ago": 4142,
      "iced": 4143,
      "ĠGold": 4144,
      "Ġonto": 4145,
      "Ġelectric": 4146,
      "Ġcalls": 4147,
      "Ġexperiences": 4148,
      "atically": 4149,
      "Ġaward": 4150,
      "Ġquarter": 4151,
      "Ġbiggest": 4152,
      "33": 4153,
      "ĠOnce": 4154,
      "eds": 4155,
      "oving": 4156,
      "ĠBill": 4157,
      "Ġsexual": 4158,
      "Ġfans": 4159,
      "know": 4160,
      "Ġdouble": 4161,
      "Ġlaws": 4162,
      "Ġimpress": 4163,
      "Ġexercise": 4164,
      "ĠGeneral": 4165,
      "Ġgun": 4166,
      "itness": 4167,
      "onday": 4168,
      "Ġvehicle": 4169,
      "Un": 4170,
      "ĠDel": 4171,
      "ĠSince": 4172,
      "aper": 4173,
      "ĠPeople": 4174,
      "Ġ2006": 4175,
      "Ġcitiz": 4176,
      "ĠPost": 4177,
      "Ġscen": 4178,
      "Ġremains": 4179,
      "Ġbalance": 4180,
      "ĠSur": 4181,
      "Ġ196": 4182,
      "Ġmonitor": 4183,
      "uman": 4184,
      "Ġincred": 4185,
      "Ġchallenges": 4186,
      "Ġdied": 4187,
      "Ġdefend": 4188,
      "Ġiniti": 4189,
      "Ġorigin": 4190,
      "rim": 4191,
      "Ġstream": 4192,
      "Ġdirection": 4193,
      "Ġcollabor": 4194,
      "Ġoffering": 4195,
      "Ġcaused": 4196,
      "iques": 4197,
      "ortunately": 4198,
      "ĠRich": 4199,
      "Ġactions": 4200,
      "ĠHome": 4201,
      "Ġmiles": 4202,
      "Ġexperienced": 4203,
      "ĠPort": 4204,
      "Ġcounter": 4205,
      "akers": 4206,
      "ĠFrench": 4207,
      "inct": 4208,
      "Ġproduced": 4209,
      "Ġvill": 4210,
      "Ġguarant": 4211,
      "ĠPri": 4212,
      "Ġdelivery": 4213,
      "Ġforms": 4214,
      "Ġacadem": 4215,
      "Ġvalues": 4216,
      "Ġshowed": 4217,
      "Ġign": 4218,
      "oom": 4219,
      "with": 4220,
      "ĠChristmas": 4221,
      "rowd": 4222,
      "Here": 4223,
      "itors": 4224,
      "Ġcircum": 4225,
      "encies": 4226,
      "look": 4227,
      "ev": 4228,
      "Ġgrant": 4229,
      "ĠPlay": 4230,
      "EM": 4231,
      "Ġbackground": 4232,
      "Ġserved": 4233,
      "Ġessay": 4234,
      "ĠSuper": 4235,
      "Ġrap": 4236,
      "miss": 4237,
      "Ġmemory": 4238,
      "Ġcommit": 4239,
      "Ġbehavior": 4240,
      "Ġheavy": 4241,
      "Ġcamera": 4242,
      "cript": 4243,
      "Ġdepos": 4244,
      "Ġfant": 4245,
      "hips": 4246,
      "Ġcentral": 4247,
      "odes": 4248,
      "Ġmanage": 4249,
      "Ġreplace": 4250,
      "ĠDevelop": 4251,
      "Ġwonderful": 4252,
      "iers": 4253,
      "Ġunit": 4254,
      "TS": 4255,
      "eared": 4256,
      "ĠSam": 4257,
      "Ġflu": 4258,
      "Ġoppos": 4259,
      "ĠInter": 4260,
      "Ġlegisl": 4261,
      "Ġwilling": 4262,
      "ston": 4263,
      "Ġrule": 4264,
      "Ġappoint": 4265,
      "Ġmental": 4266,
      "ĠAssociation": 4267,
      "ĠBoard": 4268,
      "ĠBel": 4269,
      "Ġopening": 4270,
      "CC": 4271,
      "Ġcomments": 4272,
      "Ġjourney": 4273,
      "gency": 4274,
      "Ġsumm": 4275,
      "Ġhaven": 4276,
      "Ġplaced": 4277,
      "Ġhelping": 4278,
      "Ġwhom": 4279,
      "aced": 4280,
      "Ġassign": 4281,
      "ander": 4282,
      "Ġscene": 4283,
      "Ġstandards": 4284,
      "ipping": 4285,
      "roy": 4286,
      "Ġsolid": 4287,
      "hy": 4288,
      "ĠSaturday": 4289,
      "Ġgain": 4290,
      "ros": 4291,
      "Ġdecisions": 4292,
      "name": 4293,
      "rees": 4294,
      "ĠJer": 4295,
      "Ġcomfortable": 4296,
      "Ġpresence": 4297,
      "Ġremind": 4298,
      ");": 4299,
      "Ġhotel": 4300,
      "ĠOh": 4301,
      "lands": 4302,
      "Ġleader": 4303,
      "Ġkill": 4304,
      "ĠDec": 4305,
      "iency": 4306,
      "ĠAnge": 4307,
      "36": 4308,
      "overy": 4309,
      "Ġrelevant": 4310,
      "IM": 4311,
      "phone": 4312,
      "Ġnames": 4313,
      "Ġplus": 4314,
      "Ġshared": 4315,
      "works": 4316,
      "These": 4317,
      "IP": 4318,
      "itar": 4319,
      "Ġthank": 4320,
      "asure": 4321,
      "ĠÐ": 4322,
      "Ġreviews": 4323,
      "ae": 4324,
      "Ġvir": 4325,
      "asy": 4326,
      "Ġtransl": 4327,
      "vere": 4328,
      "Ġannual": 4329,
      "Ġfunds": 4330,
      "ĠPC": 4331,
      "Ġmanufacture": 4332,
      "lies": 4333,
      "ancing": 4334,
      "rad": 4335,
      "Ġprepared": 4336,
      "Ġdeveloping": 4337,
      "75": 4338,
      "Ġsecure": 4339,
      "ears": 4340,
      "Ġcommunities": 4341,
      "porary": 4342,
      "ternal": 4343,
      "Ġcompar": 4344,
      "Ġdespite": 4345,
      "ĠRober": 4346,
      "Ġmission": 4347,
      "Ġobtain": 4348,
      "Ġtask": 4349,
      "Ġarm": 4350,
      "Ġmaster": 4351,
      "Ġjoin": 4352,
      "tained": 4353,
      "ĠCommission": 4354,
      "Ġteaching": 4355,
      "standing": 4356,
      "ĠEduc": 4357,
      "ĠThom": 4358,
      "Ġopinion": 4359,
      "Ġfish": 4360,
      "Ġ80": 4361,
      "Ġsympt": 4362,
      "Ġnor": 4363,
      "do": 4364,
      "DA": 4365,
      "Ġguess": 4366,
      "ĠPlease": 4367,
      "ĠEv": 4368,
      "semb": 4369,
      "edding": 4370,
      "Ġpresented": 4371,
      "ĠObama": 4372,
      "ervation": 4373,
      "Ġagreement": 4374,
      "Ġtim": 4375,
      "rab": 4376,
      "Ġrob": 4377,
      "Ġsources": 4378,
      "ĠAustralia": 4379,
      "Ġcovered": 4380,
      "Some": 4381,
      "Ġearn": 4382,
      "ses": 4383,
      "Ġannounced": 4384,
      "Ġcapacity": 4385,
      "ĠSol": 4386,
      "Ġdriving": 4387,
      "ĠST": 4388,
      "ocal": 4389,
      "Ġtraffic": 4390,
      "Ġbecoming": 4391,
      "Ġdecide": 4392,
      "ĠPlan": 4393,
      "ĠMichael": 4394,
      "ĠReview": 4395,
      "Ġstreet": 4396,
      "LE": 4397,
      "!âĢĿ": 4398,
      "Ġconduct": 4399,
      "Ġstorage": 4400,
      "Ġdaughter": 4401,
      "cious": 4402,
      "Ġ2005": 4403,
      "Ġincor": 4404,
      "ĠÂ£": 4405,
      "ĠChinese": 4406,
      "Ġkeeping": 4407,
      "Ġshop": 4408,
      "Ġtesting": 4409,
      "rey": 4410,
      "Ġmale": 4411,
      "llig": 4412,
      "ĠLike": 4413,
      "Ġappears": 4414,
      "Ġâ": 4415,
      "ĠTexas": 4416,
      "Ġcoffe": 4417,
      "unction": 4418,
      "Ġoperations": 4419,
      "Ġvolunt": 4420,
      "ios": 4421,
      "Ġrich": 4422,
      "Ġconcent": 4423,
      "azon": 4424,
      "Ġestim": 4425,
      "Ġbatter": 4426,
      "amin": 4427,
      "Ġfinished": 4428,
      "Ġfinish": 4429,
      "Ġreli": 4430,
      "Ġloan": 4431,
      "ĠHall": 4432,
      "inter": 4433,
      "Ġwaiting": 4434,
      "Ġap": 4435,
      "ĠBig": 4436,
      "iliar": 4437,
      "ĠBank": 4438,
      "ĠMary": 4439,
      "Ġsweet": 4440,
      "Ġscore": 4441,
      "Ġcris": 4442,
      "Ġhighest": 4443,
      "ript": 4444,
      "ror": 4445,
      "Ġrat": 4446,
      "Ġrelationships": 4447,
      "apers": 4448,
      "Com": 4449,
      "Ġrecords": 4450,
      "ĠTy": 4451,
      "Ġspending": 4452,
      "Ġcontext": 4453,
      "Ġcreative": 4454,
      "but": 4455,
      "ĠAM": 4456,
      "Ġpolicies": 4457,
      "ii": 4458,
      "oves": 4459,
      "Ġsch": 4460,
      "Ġthousands": 4461,
      "pond": 4462,
      "dule": 4463,
      "oyal": 4464,
      "Ġopened": 4465,
      "Ġdrop": 4466,
      "Ġsmaller": 4467,
      "Ġpieces": 4468,
      "RA": 4469,
      "Ġcards": 4470,
      "Ġmulti": 4471,
      "TH": 4472,
      "Ġweekend": 4473,
      "ĠPress": 4474,
      "Ġer": 4475,
      "Ġweather": 4476,
      "ula": 4477,
      "Ġpractices": 4478,
      "vention": 4479,
      "ĠFe": 4480,
      "Ġdiscover": 4481,
      "Ġwear": 4482,
      "ĠMicro": 4483,
      "ĠBra": 4484,
      "Ġjournal": 4485,
      "ĠSub": 4486,
      "Ġtechnical": 4487,
      "Ġinitial": 4488,
      "Ġ90": 4489,
      "what": 4490,
      "Ġtips": 4491,
      "Ġhonest": 4492,
      "Ġideal": 4493,
      "Ġkid": 4494,
      "Ġbrief": 4495,
      "Ġowner": 4496,
      "Not": 4497,
      "Ġcompleted": 4498,
      "Ġviews": 4499,
      "ĠOffice": 4500,
      "rary": 4501,
      "how": 4502,
      "ĠAfrica": 4503,
      "ĠRel": 4504,
      "Ġleaving": 4505,
      "ĠMem": 4506,
      "Ġhomes": 4507,
      "Ġwatching": 4508,
      "Ġcoffee": 4509,
      "ĠSa": 4510,
      "Ġinfluence": 4511,
      "Ġtypically": 4512,
      "Ġnegative": 4513,
      "Ġeventually": 4514,
      "Ġdiagn": 4515,
      "Ġfan": 4516,
      "ĠWindows": 4517,
      "Ġlock": 4518,
      "ĠAnn": 4519,
      "lor": 4520,
      "ĠPhil": 4521,
      "Ġenhance": 4522,
      "PA": 4523,
      "icate": 4524,
      "Ġnumerous": 4525,
      "za": 4526,
      "ĠLife": 4527,
      "ki": 4528,
      "Ġrank": 4529,
      "ĠMart": 4530,
      "ĠHist": 4531,
      "ĠRob": 4532,
      "Ġfreed": 4533,
      "Ġpool": 4534,
      "Ġcrowd": 4535,
      "Ġconflic": 4536,
      "Ġseparate": 4537,
      "rian": 4538,
      "ulated": 4539,
      "ĠCongress": 4540,
      "Ġentertain": 4541,
      "ĠPM": 4542,
      "ctors": 4543,
      "Ġappeal": 4544,
      "Ġplants": 4545,
      "Ġcontinues": 4546,
      "roid": 4547,
      "ĠGovernment": 4548,
      "ĠFlor": 4549,
      "mp": 4550,
      "Ġindependent": 4551,
      "Ġraised": 4552,
      "Ġefficient": 4553,
      "RO": 4554,
      "Ġidentify": 4555,
      "Ġhandle": 4556,
      "Ġdoubt": 4557,
      "Ġjump": 4558,
      "Ġinterp": 4559,
      "Ġvision": 4560,
      "ĠInstitute": 4561,
      "Ġexhib": 4562,
      "Ġfol": 4563,
      "Ġmort": 4564,
      "Ġepis": 4565,
      "inn": 4566,
      "44": 4567,
      "ado": 4568,
      "gl": 4569,
      "Ġruns": 4570,
      "Do": 4571,
      "Ġended": 4572,
      "Ġcloud": 4573,
      "ushing": 4574,
      "spe": 4575,
      "ception": 4576,
      "Ġpictures": 4577,
      "sey": 4578,
      "Ġvari": 4579,
      "Ġreached": 4580,
      "95": 4581,
      "ĠBer": 4582,
      "Ġwindow": 4583,
      "Ġbattle": 4584,
      "Ġlabor": 4585,
      "ugg": 4586,
      "Ġcatch": 4587,
      "tered": 4588,
      "isation": 4589,
      "berg": 4590,
      "New": 4591,
      "Ġplenty": 4592,
      "ĠWhe": 4593,
      "which": 4594,
      "oses": 4595,
      "uit": 4596,
      "yer": 4597,
      "Ġphoto": 4598,
      "Ġmostly": 4599,
      "Ġunless": 4600,
      "Ġworry": 4601,
      "Ġthoughts": 4602,
      "ferences": 4603,
      "Ġder": 4604,
      "bing": 4605,
      "Ġarg": 4606,
      "Ġforget": 4607,
      "ĠDemocr": 4608,
      "Ġcore": 4609,
      "Ġmouth": 4610,
      "pan": 4611,
      "Ġflex": 4612,
      "free": 4613,
      "Ġdut": 4614,
      "Ġmanager": 4615,
      "Ġstation": 4616,
      "iber": 4617,
      "no": 4618,
      "Ġseek": 4619,
      "Ġleadership": 4620,
      "rehens": 4621,
      "Ġshape": 4622,
      "Ġban": 4623,
      "CH": 4624,
      "point": 4625,
      "icks": 4626,
      "Ġanimals": 4627,
      "Ġremove": 4628,
      "Ġadapt": 4629,
      "abilities": 4630,
      "estic": 4631,
      "ĠYes": 4632,
      "ĠFound": 4633,
      "ĠEngland": 4634,
      "Ġton": 4635,
      "Ġspecies": 4636,
      "Ġproceed": 4637,
      "ĠIT": 4638,
      "Ġmagn": 4639,
      "ĠEach": 4640,
      "\",": 4641,
      "ked": 4642,
      "Ġresponsibility": 4643,
      "Ġluck": 4644,
      "Ġ2000": 4645,
      "ĠTheir": 4646,
      "ipp": 4647,
      "Ġconnected": 4648,
      "cient": 4649,
      "Ġrid": 4650,
      "Ġ31": 4651,
      "Ġadvance": 4652,
      "Don": 4653,
      "500": 4654,
      "Ġvs": 4655,
      "Ġmanner": 4656,
      "Ġmarkets": 4657,
      "Ġfocused": 4658,
      "ursday": 4659,
      "ipped": 4660,
      "Ġlibr": 4661,
      "ĠMake": 4662,
      "Ġdiscussion": 4663,
      "Ġintellig": 4664,
      "Ġinstance": 4665,
      "Ġwww": 4666,
      "Ġsustain": 4667,
      "ulate": 4668,
      "Ġalternative": 4669,
      "dden": 4670,
      "arge": 4671,
      "Ġdat": 4672,
      "Ġfab": 4673,
      "Ġsequ": 4674,
      "Ġthanks": 4675,
      "Ġbow": 4676,
      "gery": 4677,
      "Ġcircumst": 4678,
      "ĠSpr": 4679,
      "Ġconcerns": 4680,
      "Ġsitu": 4681,
      "Ġfill": 4682,
      "38": 4683,
      "osh": 4684,
      "pm": 4685,
      "Ġforces": 4686,
      "Ġprinc": 4687,
      "uesday": 4688,
      "coh": 4689,
      "ĠUnder": 4690,
      "Ġpredict": 4691,
      "ĠPublic": 4692,
      "Ġstarts": 4693,
      "Ġcontains": 4694,
      "ĠLou": 4695,
      "Ġcoverage": 4696,
      "coming": 4697,
      "antic": 4698,
      "Ġ70": 4699,
      "Ġleads": 4700,
      "Ġshowing": 4701,
      "Ġkitchen": 4702,
      "Ġvictim": 4703,
      "Ġchanging": 4704,
      "Ġgift": 4705,
      "Ġdefense": 4706,
      "Ġsenior": 4707,
      "ĠGeorge": 4708,
      "Ġbeat": 4709,
      "poses": 4710,
      "ĠMag": 4711,
      "ĠAmericans": 4712,
      "Ġabsolutely": 4713,
      "Ġagency": 4714,
      "Ġmur": 4715,
      "Ġdisp": 4716,
      "soft": 4717,
      "Ġcompetition": 4718,
      "ste": 4719,
      "Ġdebt": 4720,
      "Ġfemale": 4721,
      "Ġwaste": 4722,
      "ĠCommittee": 4723,
      "Ġtemperature": 4724,
      "ĠManagement": 4725,
      "odies": 4726,
      "ĠCam": 4727,
      "ĠCB": 4728,
      "Con": 4729,
      "Ġoperating": 4730,
      "going": 4731,
      "Ġingred": 4732,
      "umn": 4733,
      "ĠPet": 4734,
      "Ġexpensive": 4735,
      "Ġrise": 4736,
      "nding": 4737,
      "Ġrelax": 4738,
      "Ġconsequ": 4739,
      "Ġinjury": 4740,
      "ĠMonday": 4741,
      "ĠFore": 4742,
      "ĠAND": 4743,
      "Ġconference": 4744,
      "Ġbuying": 4745,
      "Ġlinks": 4746,
      "Ġclimate": 4747,
      "Ġasking": 4748,
      "Ġadministration": 4749,
      "ĠMo": 4750,
      "Ġvisual": 4751,
      "ading": 4752,
      "Why": 4753,
      "ĠUse": 4754,
      "ona": 4755,
      "ĠSun": 4756,
      "Ġfootball": 4757,
      "Ġmanaged": 4758,
      "**": 4759,
      "Ġevening": 4760,
      "Ġslightly": 4761,
      "Ġthrow": 4762,
      "Ġsudden": 4763,
      "itz": 4764,
      "uries": 4765,
      "Ġselection": 4766,
      "oles": 4767,
      "Ġfiles": 4768,
      "Ġweap": 4769,
      "ednes": 4770,
      "Ġeating": 4771,
      "rolled": 4772,
      "eah": 4773,
      "Ġliber": 4774,
      "ĠStr": 4775,
      "Ġpreviously": 4776,
      "ented": 4777,
      "Ġreturned": 4778,
      "Ġdocuments": 4779,
      "ĠTrump": 4780,
      "Ġnotes": 4781,
      "cont": 4782,
      "known": 4783,
      "that": 4784,
      "ĠMal": 4785,
      "Ġfamous": 4786,
      "Ġgeneration": 4787,
      "Ġapplied": 4788,
      "Ġreligious": 4789,
      "Ġoptim": 4790,
      "ĠBet": 4791,
      "ĠBay": 4792,
      "Ġretail": 4793,
      "alls": 4794,
      "Ġconsid": 4795,
      "Ġprocesses": 4796,
      "Ġfeels": 4797,
      "ĠTO": 4798,
      "Ġassum": 4799,
      "Ġbath": 4800,
      "icon": 4801,
      "ius": 4802,
      "55": 4803,
      "Ġdie": 4804,
      "Ġconven": 4805,
      "ĠMex": 4806,
      "ĠMiss": 4807,
      "enture": 4808,
      "Ġputting": 4809,
      "ront": 4810,
      "vin": 4811,
      "Ġquant": 4812,
      "Ġsand": 4813,
      "Ġbul": 4814,
      "Ġsymptoms": 4815,
      "ciples": 4816,
      "Ġofficials": 4817,
      "Ġtree": 4818,
      "Ar": 4819,
      "Ġ2004": 4820,
      "Ġclosed": 4821,
      "Ġfashion": 4822,
      "kin": 4823,
      "Ġexplain": 4824,
      "Ġice": 4825,
      "Ġsector": 4826,
      "aked": 4827,
      "Ġsto": 4828,
      "IA": 4829,
      "Ġhearing": 4830,
      "Ġspect": 4831,
      "ĠVir": 4832,
      "Ġspring": 4833,
      "Ġsea": 4834,
      "ĠSocial": 4835,
      "Ġwine": 4836,
      "Ġstated": 4837,
      "34": 4838,
      "nel": 4839,
      "night": 4840,
      "ship": 4841,
      "ĠHel": 4842,
      "Ġlisten": 4843,
      "ĠSal": 4844,
      "orney": 4845,
      "ĠOnline": 4846,
      "Ġcheap": 4847,
      "ishes": 4848,
      "Ġkilled": 4849,
      "Ġimportance": 4850,
      "Ġpassion": 4851,
      "Ġcombination": 4852,
      "ENT": 4853,
      "aid": 4854,
      "Ġaccompl": 4855,
      "Ġspl": 4856,
      "ĠAv": 4857,
      "Ġsoul": 4858,
      "UR": 4859,
      "ĠHot": 4860,
      "Ġteachers": 4861,
      "Ġpun": 4862,
      "tion": 4863,
      "pet": 4864,
      "ĠChild": 4865,
      "Ġmarriage": 4866,
      "Ġforg": 4867,
      "Ġclasses": 4868,
      "Ġpurposes": 4869,
      "Ġteacher": 4870,
      "gers": 4871,
      "Ġfactor": 4872,
      "ushed": 4873,
      "Ġinterests": 4874,
      "ĠRiver": 4875,
      "Ġnoted": 4876,
      "Ġtechniques": 4877,
      "state": 4878,
      "phas": 4879,
      "ĠJournal": 4880,
      "Ġfunding": 4881,
      "ĠMat": 4882,
      "Ġprop": 4883,
      "ructure": 4884,
      "Ġvote": 4885,
      "Ġperformed": 4886,
      "Ġfailure": 4887,
      "active": 4888,
      "Ġgraph": 4889,
      "ĠClass": 4890,
      "osen": 4891,
      "Ġadvanced": 4892,
      "ĠCr": 4893,
      "den": 4894,
      "Ġflav": 4895,
      "ota": 4896,
      "Ġclim": 4897,
      "Ġdistance": 4898,
      "equ": 4899,
      "ĠUSA": 4900,
      "Ġenvironmental": 4901,
      "ĠDirector": 4902,
      "Ġmo": 4903,
      "anta": 4904,
      "oma": 4905,
      "Ġconversation": 4906,
      "39": 4907,
      "Ġoperation": 4908,
      "Ġemp": 4909,
      "outs": 4910,
      "Ġmeasures": 4911,
      "Ġshut": 4912,
      "icians": 4913,
      "ednesday": 4914,
      "Ġscale": 4915,
      "Ġarchitect": 4916,
      "Ġ35": 4917,
      "Ġourselves": 4918,
      "Ġpossibly": 4919,
      "otic": 4920,
      "Ġdesire": 4921,
      "orial": 4922,
      "ĠTur": 4923,
      "reak": 4924,
      "ga": 4925,
      "outhern": 4926,
      "Ġholding": 4927,
      "Ġapprox": 4928,
      "ĠInformation": 4929,
      "Ġsession": 4930,
      "ĠCap": 4931,
      "ĠCare": 4932,
      "Ġpoll": 4933,
      "ampions": 4934,
      "ĠCle": 4935,
      "Ġwalking": 4936,
      "ĠJud": 4937,
      "while": 4938,
      "Ġexperts": 4939,
      "ka": 4940,
      "32": 4941,
      "Ġvalid": 4942,
      "amily": 4943,
      "37": 4944,
      "ĠScience": 4945,
      "Ġsitting": 4946,
      "isco": 4947,
      "Ġfurn": 4948,
      "ĠBur": 4949,
      "kay": 4950,
      "Ġcorner": 4951,
      "Ġsounds": 4952,
      "Ġsac": 4953,
      "Ġtight": 4954,
      "Ġminor": 4955,
      "box": 4956,
      "iveness": 4957,
      "Ġtheory": 4958,
      "Ġlived": 4959,
      "ĠDesign": 4960,
      "Ġleaves": 4961,
      "Ġhelpful": 4962,
      "Ġsugar": 4963,
      "roud": 4964,
      "Ġvideos": 4965,
      "Ġproperly": 4966,
      "Ġship": 4967,
      "Ġbelief": 4968,
      "ĠAP": 4969,
      "ĠFlorida": 4970,
      "example": 4971,
      "Ġexplore": 4972,
      "Ġcommand": 4973,
      "fast": 4974,
      "Ġdetect": 4975,
      "ĠSmith": 4976,
      "ads": 4977,
      "CA": 4978,
      "Ġphil": 4979,
      "Ġcultural": 4980,
      "ports": 4981,
      "Ġtells": 4982,
      "Ġadding": 4983,
      "Ġallowing": 4984,
      "ĠApple": 4985,
      "Ġminute": 4986,
      "Ġarticles": 4987,
      "ĠClub": 4988,
      "cel": 4989,
      "ĠCur": 4990,
      "Ġfilled": 4991,
      "Ġthr": 4992,
      "Go": 4993,
      "Ġbound": 4994,
      "Ġdepartment": 4995,
      "Ġpaint": 4996,
      "Ġoccup": 4997,
      "65": 4998,
      "Ġsupposed": 4999,
      "ĠConst": 5000,
      "Ġapparent": 5001,
      "ĠWho": 5002,
      "48": 5003,
      "ĠAccording": 5004,
      "ĠTime": 5005,
      "Ġreference": 5006,
      "fection": 5007,
      "asks": 5008,
      "Ġstrategies": 5009,
      "Ġelection": 5010,
      "Ġestate": 5011,
      "reek": 5012,
      "ĠTom": 5013,
      "Ġcab": 5014,
      "Ġfamiliar": 5015,
      "Ġmarried": 5016,
      "Ġdriver": 5017,
      "However": 5018,
      "uable": 5019,
      "olly": 5020,
      "ellow": 5021,
      "Ġpregn": 5022,
      "Ġcars": 5023,
      "Ġmut": 5024,
      "inding": 5025,
      "ĠEducation": 5026,
      "ĠIns": 5027,
      "De": 5028,
      "Pl": 5029,
      "Ġquiet": 5030,
      "Ġcoach": 5031,
      "Ġdyn": 5032,
      "rate": 5033,
      "hab": 5034,
      "Ġauthority": 5035,
      "Ġfees": 5036,
      "Ġsem": 5037,
      "Ġrapid": 5038,
      "Ġdecre": 5039,
      "Ġpair": 5040,
      "Ġtom": 5041,
      "Ġmotor": 5042,
      "cipl": 5043,
      "Ġencourage": 5044,
      "ĠPower": 5045,
      "orter": 5046,
      "Ġtransform": 5047,
      "Ġwebsites": 5048,
      "mail": 5049,
      "Ġtrading": 5050,
      "ĠDi": 5051,
      "life": 5052,
      "Ġinternal": 5053,
      "ĠAlex": 5054,
      "Ġfuel": 5055,
      "Ġcitizens": 5056,
      "uled": 5057,
      "Ġteach": 5058,
      "Ġdrugs": 5059,
      "azine": 5060,
      "Ġchair": 5061,
      "Ġbought": 5062,
      "iture": 5063,
      "MS": 5064,
      "Ġtherapy": 5065,
      "icago": 5066,
      "Ġprocessing": 5067,
      "ĠSing": 5068,
      "Ġmotiv": 5069,
      "Ġweak": 5070,
      "Ġdetermined": 5071,
      "Ġsouth": 5072,
      "Ġbird": 5073,
      "ya": 5074,
      "Ġspecifically": 5075,
      "Ġchemical": 5076,
      "Ġbright": 5077,
      "ĠCamp": 5078,
      "Ġcauses": 5079,
      "Ġpoly": 5080,
      "Ġneighbor": 5081,
      "rene": 5082,
      "Ġviolence": 5083,
      "Ġselling": 5084,
      "Ġappeared": 5085,
      "estival": 5086,
      "Ġexchange": 5087,
      "Ġcities": 5088,
      "ĠDuring": 5089,
      "ĠHy": 5090,
      "ĠCD": 5091,
      "Ġreaders": 5092,
      "tenance": 5093,
      "Ġoblig": 5094,
      "itutions": 5095,
      "Ġfee": 5096,
      "Ġment": 5097,
      "Ġwinter": 5098,
      "Ġstanding": 5099,
      "OW": 5100,
      "iat": 5101,
      "ingly": 5102,
      "Ġeffic": 5103,
      "ĠStar": 5104,
      "Ġschedule": 5105,
      "Ġaspects": 5106,
      "Ġbond": 5107,
      "asp": 5108,
      "Ġintended": 5109,
      "Ġfreedom": 5110,
      "ette": 5111,
      "Ġflat": 5112,
      "Ġwitness": 5113,
      "Ġjoint": 5114,
      ".âĢĻ": 5115,
      "Ġking": 5116,
      "Ġelement": 5117,
      "Ġsmooth": 5118,
      "Ġwriter": 5119,
      "cks": 5120,
      "Ġrealize": 5121,
      "Ġfailed": 5122,
      "ĠAmazon": 5123,
      "âĢĺ": 5124,
      "ĠMil": 5125,
      "Ġpal": 5126,
      "can": 5127,
      "Ġnorth": 5128,
      "race": 5129,
      "BA": 5130,
      "ĠGerman": 5131,
      "Ġsharing": 5132,
      "Ġmetal": 5133,
      "Ġplays": 5134,
      "47": 5135,
      "II": 5136,
      "Ġthick": 5137,
      "ĠWater": 5138,
      "Ġbrings": 5139,
      "ĠVol": 5140,
      "Ġegg": 5141,
      "ossible": 5142,
      "Ġ2003": 5143,
      "Ġnuc": 5144,
      "Ġbutton": 5145,
      "Ġsymb": 5146,
      "Ġdistrict": 5147,
      "Ġselected": 5148,
      "ĠTop": 5149,
      "Ġedge": 5150,
      "Ġpush": 5151,
      "Ġconcerned": 5152,
      "ĠBrown": 5153,
      "ĠUnion": 5154,
      "ĠUN": 5155,
      "Ġanx": 5156,
      "Ġminimum": 5157,
      "Ġwedding": 5158,
      "cohol": 5159,
      "ĠAfrican": 5160,
      "istan": 5161,
      "Ġsav": 5162,
      "Ġproperties": 5163,
      "uration": 5164,
      "Ġrecommended": 5165,
      "Ġcalcul": 5166,
      "Ġradio": 5167,
      "Ġtotally": 5168,
      "Ġveget": 5169,
      "Ġclinical": 5170,
      "ixt": 5171,
      "Ġworse": 5172,
      "ĠRock": 5173,
      "Ġkick": 5174,
      "alled": 5175,
      "From": 5176,
      "Ġcondu": 5177,
      "Ġlaunch": 5178,
      "ĠLu": 5179,
      "friend": 5180,
      "88": 5181,
      "Ġsongs": 5182,
      "Ġcircumstances": 5183,
      "rier": 5184,
      "ĠVe": 5185,
      "Ã¢": 5186,
      "Ġassistance": 5187,
      "Ġanimal": 5188,
      "rical": 5189,
      "ĠRoad": 5190,
      "ometimes": 5191,
      "Ġseeking": 5192,
      "Ġboost": 5193,
      "Ġmir": 5194,
      "ĠEarth": 5195,
      "win": 5196,
      "Ġtaste": 5197,
      "press": 5198,
      "ĠAtt": 5199,
      "Ġvolume": 5200,
      "atin": 5201,
      "ĠDet": 5202,
      "Ġrain": 5203,
      "ĠTwo": 5204,
      "Ġprison": 5205,
      "Ġyes": 5206,
      "Ġsubstant": 5207,
      "ĠProfess": 5208,
      "Ġburn": 5209,
      "Ġliqu": 5210,
      "last": 5211,
      "itionally": 5212,
      "Ġforced": 5213,
      "ĠSil": 5214,
      "Ġfif": 5215,
      "bert": 5216,
      "ĠIts": 5217,
      "Ġlisted": 5218,
      "ait": 5219,
      "ĠMill": 5220,
      "top": 5221,
      "Ġran": 5222,
      "Ġexpression": 5223,
      "Ġhyd": 5224,
      "ĠMount": 5225,
      "you": 5226,
      "Ġcorporate": 5227,
      "Ġride": 5228,
      "Ġresidents": 5229,
      "Ġcompos": 5230,
      "ĠTimes": 5231,
      "Ġdepending": 5232,
      "ĠBi": 5233,
      "Ġdedicated": 5234,
      "Ġsigns": 5235,
      "IR": 5236,
      "ĠMass": 5237,
      "idden": 5238,
      "Ġproposed": 5239,
      "Ġsignificantly": 5240,
      "Ġdollars": 5241,
      "ups": 5242,
      "Ġperspective": 5243,
      "rd": 5244,
      "ommod": 5245,
      "ĠData": 5246,
      "Ġconcern": 5247,
      "Ġterror": 5248,
      "SA": 5249,
      "Ġconsumers": 5250,
      "Ġenem": 5251,
      "Ġconsumer": 5252,
      "Ġaccounts": 5253,
      "Ġstret": 5254,
      "ĠDevelopment": 5255,
      "zen": 5256,
      "Ġsnow": 5257,
      "Ġfacilities": 5258,
      "Ġdinner": 5259,
      "ĠCas": 5260,
      "ĠIsland": 5261,
      "ato": 5262,
      "Ġchat": 5263,
      "Ġune": 5264,
      "ĠDiv": 5265,
      "Ġdiss": 5266,
      "Ġrelatively": 5267,
      "Ġmedium": 5268,
      "Ġcrisis": 5269,
      "ĠWestern": 5270,
      "Ġswitch": 5271,
      "ĠLear": 5272,
      "ĠFranc": 5273,
      "Ġartist": 5274,
      "ĠArch": 5275,
      "ĠCentral": 5276,
      "Ġrestaurant": 5277,
      "ĠParty": 5278,
      "Ġschol": 5279,
      "Ġdecades": 5280,
      "ĠPeter": 5281,
      "Ġreduced": 5282,
      "Ġmail": 5283,
      "Ġentry": 5284,
      "Ġcarried": 5285,
      "Ġintroduced": 5286,
      "Ġincorpor": 5287,
      "Ġyouth": 5288,
      "ĠCarol": 5289,
      "31": 5290,
      "Ġbeauty": 5291,
      "Ġremoved": 5292,
      "Ġconfident": 5293,
      "Bl": 5294,
      "cknow": 5295,
      "Ġcaught": 5296,
      "à¤": 5297,
      "Ġspeech": 5298,
      "Ġherself": 5299,
      "Ġsole": 5300,
      "Ġseat": 5301,
      "ĠHill": 5302,
      "ĠDown": 5303,
      "Ġdiscl": 5304,
      "Ġacademic": 5305,
      "ĠTest": 5306,
      "Ġsets": 5307,
      "Ġsteel": 5308,
      "Ġcraft": 5309,
      "ĠLook": 5310,
      "Ġwelcome": 5311,
      "word": 5312,
      "ulture": 5313,
      "Ġtrail": 5314,
      "Ġcomponents": 5315,
      "anda": 5316,
      "Ġwinning": 5317,
      "umber": 5318,
      "Ġexclus": 5319,
      "ĠVis": 5320,
      "Ġdiscovered": 5321,
      "icit": 5322,
      "Ġuns": 5323,
      "umm": 5324,
      "Ġsin": 5325,
      "Ġprotein": 5326,
      "Ġsurvey": 5327,
      "icial": 5328,
      "Ġgoods": 5329,
      "Ġstopped": 5330,
      "Ġtough": 5331,
      "Ġemployee": 5332,
      "Ġagreed": 5333,
      "hetic": 5334,
      "Ġaccident": 5335,
      "Ġamb": 5336,
      "Ġdu": 5337,
      "Ġtruck": 5338,
      "49": 5339,
      "oker": 5340,
      "Ġentirely": 5341,
      "Ġprofessionals": 5342,
      "Ġtopic": 5343,
      "Ġfunctions": 5344,
      "ĠWord": 5345,
      "oration": 5346,
      "ĠTwitter": 5347,
      "Ð¾": 5348,
      "Ġprin": 5349,
      "ĠFood": 5350,
      "Ġgreatest": 5351,
      "Ġconfidence": 5352,
      "Ġraise": 5353,
      "ini": 5354,
      "ĠTor": 5355,
      "Ġpaying": 5356,
      "Ġaid": 5357,
      "Ġtelling": 5358,
      "Ġprofile": 5359,
      "Ġarrived": 5360,
      "Ġidentified": 5361,
      "luding": 5362,
      "Ġexcited": 5363,
      "Ġexamples": 5364,
      "Ġju": 5365,
      "essions": 5366,
      "Ġcalling": 5367,
      "Ġdial": 5368,
      "Ġbelong": 5369,
      "ĠIsl": 5370,
      "Ġtrees": 5371,
      "respond": 5372,
      "isher": 5373,
      "orthern": 5374,
      "Ġarrange": 5375,
      "Ġexplained": 5376,
      "Ġspiritual": 5377,
      "Ġvolunte": 5378,
      "Ġ45": 5379,
      "ulations": 5380,
      "!\"": 5381,
      "46": 5382,
      "Ġemphas": 5383,
      "ĠSecurity": 5384,
      "elines": 5385,
      "Ġcommitted": 5386,
      "Ġhttps": 5387,
      "ĠWhere": 5388,
      "bu": 5389,
      "osoph": 5390,
      "under": 5391,
      "ĠThursday": 5392,
      "ĠRobert": 5393,
      "Ġartists": 5394,
      "ĠToday": 5395,
      "Ġcontem": 5396,
      "Ġserver": 5397,
      "prof": 5398,
      "Ġhyp": 5399,
      "ĠTuesday": 5400,
      "CT": 5401,
      "Ġjoined": 5402,
      "ĠKen": 5403,
      "raq": 5404,
      "Ġmaximum": 5405,
      "prise": 5406,
      "Ġchoices": 5407,
      "cles": 5408,
      "Se": 5409,
      "Ġinterpret": 5410,
      "oto": 5411,
      "78": 5412,
      "ĠSociety": 5413,
      "Ġjudge": 5414,
      "Ġspeaking": 5415,
      "Ġagent": 5416,
      "Ġremark": 5417,
      "oted": 5418,
      "ĠProject": 5419,
      "ĠInstead": 5420,
      "ĠTim": 5421,
      "Ġfaster": 5422,
      "tr": 5423,
      "mes": 5424,
      "Well": 5425,
      "Ġsupported": 5426,
      "Ġpromote": 5427,
      "ĠChicago": 5428,
      "ĠDef": 5429,
      "ician": 5430,
      "Ġuniversity": 5431,
      "Ġobvious": 5432,
      "ifts": 5433,
      "upp": 5434,
      "Ġeffectively": 5435,
      "ĠGermany": 5436,
      "Ġresearc": 5437,
      "Ġimproved": 5438,
      "erry": 5439,
      "Ġsched": 5440,
      "Ðµ": 5441,
      "Ġkinds": 5442,
      "Ġresol": 5443,
      "Ġemotional": 5444,
      "Yes": 5445,
      "ĠYear": 5446,
      "craft": 5447,
      "eper": 5448,
      "water": 5449,
      "Ġmatters": 5450,
      "Ġ>": 5451,
      "omin": 5452,
      "Ð°": 5453,
      "Ġhero": 5454,
      "Ġmap": 5455,
      "Ġbroken": 5456,
      "Ġturns": 5457,
      "ĠAL": 5458,
      "Ġsport": 5459,
      "Ġec": 5460,
      "door": 5461,
      "ivered": 5462,
      "ĠJo": 5463,
      "Ġshopping": 5464,
      "ĠOpen": 5465,
      "Ġknowing": 5466,
      "Ġapps": 5467,
      "Ġunivers": 5468,
      "Ġsigned": 5469,
      "irty": 5470,
      "Ġadvertising": 5471,
      "Ġpure": 5472,
      "agram": 5473,
      "ĠMad": 5474,
      "ĠScott": 5475,
      "ĠCath": 5476,
      "icken": 5477,
      "ordin": 5478,
      "ĠFrance": 5479,
      "Ġplastic": 5480,
      "Ġbonus": 5481,
      "Ġrot": 5482,
      "ĠQue": 5483,
      "Ġcomprehens": 5484,
      "arp": 5485,
      "Ġaf": 5486,
      "ĠWood": 5487,
      "Ġmotion": 5488,
      "Ġmovies": 5489,
      "Ġodd": 5490,
      "Ġrevenue": 5491,
      "Ġbreast": 5492,
      "ĠPay": 5493,
      "Ġtheme": 5494,
      "ogue": 5495,
      "Ġacknow": 5496,
      "Ġelimin": 5497,
      "ĠTre": 5498,
      "Ġupdate": 5499,
      "Ġproud": 5500,
      "Ġrub": 5501,
      "rastructure": 5502,
      "ario": 5503,
      "Ġdetailed": 5504,
      "Ġunits": 5505,
      "ĠBoth": 5506,
      "illa": 5507,
      "Ġfoods": 5508,
      "Ġhousing": 5509,
      "oti": 5510,
      "Ġath": 5511,
      "ĠFrank": 5512,
      "obe": 5513,
      "atures": 5514,
      "ĠGrand": 5515,
      "ĠGen": 5516,
      "Ġarms": 5517,
      "ilding": 5518,
      "Ġnone": 5519,
      "Ġdogs": 5520,
      "Ġscientific": 5521,
      "ilit": 5522,
      "Ġtests": 5523,
      "Ġbrows": 5524,
      "Ġwire": 5525,
      "Ġdestroy": 5526,
      "Ġcombined": 5527,
      "Ġbigger": 5528,
      "ĠWil": 5529,
      "avig": 5530,
      "clusion": 5531,
      "Ġinvolve": 5532,
      "ola": 5533,
      "Ad": 5534,
      "Ġcrim": 5535,
      "road": 5536,
      "ĠLake": 5537,
      "Ġpackage": 5538,
      "Ab": 5539,
      "never": 5540,
      "Ġtreated": 5541,
      "Ĥ¬": 5542,
      "Le": 5543,
      "Ste": 5544,
      "ifications": 5545,
      "Ġrooms": 5546,
      "App": 5547,
      "Ġ@": 5548,
      "Ġequal": 5549,
      "Ġsty": 5550,
      "Ġcreation": 5551,
      "Ġsurgery": 5552,
      "Ġmal": 5553,
      "Ġdelic": 5554,
      "Ġ2002": 5555,
      "unning": 5556,
      "ĠWomen": 5557,
      "Ġpanel": 5558,
      "cher": 5559,
      "Ġdraft": 5560,
      "ĠBack": 5561,
      "ĠLong": 5562,
      "Ġgarden": 5563,
      "Ġappearance": 5564,
      "ĠDistrict": 5565,
      "Let": 5566,
      "Ġdangerous": 5567,
      "Ġcritic": 5568,
      "ĠLove": 5569,
      "Ġlaun": 5570,
      "Ġfort": 5571,
      "Me": 5572,
      "Ġadults": 5573,
      "ĠElect": 5574,
      "Ġsides": 5575,
      "rag": 5576,
      "Ġclassic": 5577,
      "Ġvisitors": 5578,
      "Ġgather": 5579,
      "Ġwealth": 5580,
      "adian": 5581,
      "pected": 5582,
      "ĠSecret": 5583,
      "Ġbegins": 5584,
      "ĠThomas": 5585,
      "Ġposts": 5586,
      "Ġtrouble": 5587,
      "Ġforth": 5588,
      "ĠBlue": 5589,
      "ania": 5590,
      "Ġtow": 5591,
      "Ġtro": 5592,
      "related": 5593,
      "acing": 5594,
      "ĠIraq": 5595,
      "erg": 5596,
      "list": 5597,
      "Ġnine": 5598,
      "Ġ2001": 5599,
      "Ġmissing": 5600,
      "Ġjoy": 5601,
      "Ġexcess": 5602,
      "Ġcourses": 5603,
      "Ġimagine": 5604,
      "ĠWilliam": 5605,
      "Ġconsidering": 5606,
      "ibilities": 5607,
      "Ġdesk": 5608,
      "lines": 5609,
      "ĠCustom": 5610,
      "Ġdefined": 5611,
      "ĠCheck": 5612,
      "Ġsam": 5613,
      "Ġconstruct": 5614,
      "ĠOld": 5615,
      "Ġfriendly": 5616,
      "Ġcream": 5617,
      "Ġmode": 5618,
      "fol": 5619,
      "Ġrisks": 5620,
      "Ġidentity": 5621,
      "Ġproviders": 5622,
      "igration": 5623,
      "Ġ500": 5624,
      "Ġdatab": 5625,
      "ht": 5626,
      "Ġmine": 5627,
      ".'": 5628,
      "ogen": 5629,
      "Ġcloser": 5630,
      "Your": 5631,
      "ĠFoundation": 5632,
      "Ġeditor": 5633,
      "Can": 5634,
      "Ġshock": 5635,
      "Ġhundreds": 5636,
      "xy": 5637,
      "Ġparticipants": 5638,
      "ĠClick": 5639,
      "Ġingredients": 5640,
      "Ġdump": 5641,
      "inos": 5642,
      "Ġreasonable": 5643,
      "ĠForm": 5644,
      "Just": 5645,
      "Ġtechnologies": 5646,
      "Ġfourth": 5647,
      "erves": 5648,
      "Ġemergency": 5649,
      "igure": 5650,
      "ria": 5651,
      "ĠHuman": 5652,
      "Ġrom": 5653,
      "Ġfrequently": 5654,
      "Ġformat": 5655,
      "eless": 5656,
      "Ġfruit": 5657,
      "Ġenjoyed": 5658,
      "Ġaccommod": 5659,
      "Ġportion": 5660,
      "yan": 5661,
      "Ġprocedure": 5662,
      "Ġremote": 5663,
      "Ġinstitutions": 5664,
      "cean": 5665,
      "rive": 5666,
      "Ġindeed": 5667,
      "ĠId": 5668,
      "ĠKore": 5669,
      "Ġrepair": 5670,
      "net": 5671,
      "Ġrestrict": 5672,
      "pass": 5673,
      "Ġvary": 5674,
      "Ġcharges": 5675,
      "Ġanywhere": 5676,
      "Ġarrest": 5677,
      "ĠThose": 5678,
      "Ġiron": 5679,
      "Ġvan": 5680,
      "Ġbringing": 5681,
      "ÃŃ": 5682,
      "Ġoccasion": 5683,
      "Ġ2021": 5684,
      "opy": 5685,
      "hand": 5686,
      "ĠVirgin": 5687,
      "lo": 5688,
      "Ġbeach": 5689,
      "Ġexciting": 5690,
      "Ġseconds": 5691,
      "Ġaffected": 5692,
      "Ġmassive": 5693,
      "ĠRussia": 5694,
      "Ġcontrast": 5695,
      "abet": 5696,
      "ĠWednesday": 5697,
      "ĠRussian": 5698,
      "ĠOnly": 5699,
      "grad": 5700,
      "01": 5701,
      "Ġlit": 5702,
      "igan": 5703,
      "oster": 5704,
      "Ġcleaning": 5705,
      "Ġrecip": 5706,
      "ĠOrgan": 5707,
      "Ġacid": 5708,
      "col": 5709,
      "ĠTake": 5710,
      "ĠCard": 5711,
      "Ġcart": 5712,
      "Ġtelevision": 5713,
      "Ġends": 5714,
      "arsh": 5715,
      "bal": 5716,
      "rics": 5717,
      "Ġbusy": 5718,
      "noon": 5719,
      "hors": 5720,
      "rete": 5721,
      "Ġmaintenance": 5722,
      "rum": 5723,
      "Ġaccepted": 5724,
      "ĠJim": 5725,
      "Ġprovider": 5726,
      "Ġvaluable": 5727,
      "ulty": 5728,
      "tra": 5729,
      "Ġfilms": 5730,
      "Ġfollows": 5731,
      "Ġpractical": 5732,
      "Ġsuit": 5733,
      "ena": 5734,
      "esome": 5735,
      "Ġdistribution": 5736,
      "Ġlandsc": 5737,
      "ĠIran": 5738,
      "Ġhistorical": 5739,
      "Ġadvoc": 5740,
      "OP": 5741,
      "kins": 5742,
      "Ġtaught": 5743,
      "Ġsan": 5744,
      "Ġresident": 5745,
      "iest": 5746,
      "ias": 5747,
      "ĠRev": 5748,
      "ita": 5749,
      "Ġfulf": 5750,
      "odd": 5751,
      "Acc": 5752,
      "IF": 5753,
      "Ġdelivered": 5754,
      "orry": 5755,
      "Ne": 5756,
      "ĠHam": 5757,
      "Ġstores": 5758,
      "Ġfle": 5759,
      "rip": 5760,
      "Ġunlike": 5761,
      "Ġchief": 5762,
      "05": 5763,
      "Ġcriminal": 5764,
      "ĠIr": 5765,
      "Another": 5766,
      "Ġapproximately": 5767,
      "leg": 5768,
      "Ġtrib": 5769,
      "CE": 5770,
      "ugh": 5771,
      "Ġcolors": 5772,
      "Ġhur": 5773,
      "Ġjustice": 5774,
      "Ġflight": 5775,
      "ĠAcadem": 5776,
      "edy": 5777,
      "Ġimpossible": 5778,
      "orough": 5779,
      "arian": 5780,
      "Ġapproved": 5781,
      "ĠLouis": 5782,
      "LC": 5783,
      "Ġcontro": 5784,
      "ĠAS": 5785,
      "Ġstone": 5786,
      "iration": 5787,
      "Ġrand": 5788,
      "OD": 5789,
      "Ġtwice": 5790,
      "ĠTherefore": 5791,
      "Ġdifferences": 5792,
      "uting": 5793,
      "Ġring": 5794,
      "ĠPerson": 5795,
      "Ġroof": 5796,
      "ĠCorpor": 5797,
      "ĠMain": 5798,
      "atural": 5799,
      "LA": 5800,
      "anged": 5801,
      "ĠMer": 5802,
      "Ġprepare": 5803,
      "ĠReport": 5804,
      "Ġhunt": 5805,
      "Ġelectronic": 5806,
      "Ġsignal": 5807,
      "ograp": 5808,
      "ĠEngine": 5809,
      "pat": 5810,
      "Ġrough": 5811,
      "ĠSk": 5812,
      "ĠHave": 5813,
      "Ġposted": 5814,
      "Ġdiscount": 5815,
      "aped": 5816,
      "Ġtiss": 5817,
      "Ġcrime": 5818,
      "Ġrecovery": 5819,
      "lets": 5820,
      "Ġsad": 5821,
      "Ġreform": 5822,
      "Ġsimpl": 5823,
      "May": 5824,
      "Ġabuse": 5825,
      "Ġsister": 5826,
      "Ġerror": 5827,
      "Ġsample": 5828,
      "luded": 5829,
      "Ġalcohol": 5830,
      "Ġdim": 5831,
      "Ġwalked": 5832,
      "Ġhappening": 5833,
      "199": 5834,
      "Ġsufficient": 5835,
      "wo": 5836,
      "ĠMont": 5837,
      "Ġforest": 5838,
      "Ġillustr": 5839,
      "Ġsuggested": 5840,
      "lements": 5841,
      "ano": 5842,
      "Ġwal": 5843,
      "Ġofficer": 5844,
      "ĠLast": 5845,
      "Ġrare": 5846,
      "ensity": 5847,
      "umin": 5848,
      "Ġfold": 5849,
      "77": 5850,
      "Ġattacks": 5851,
      "bour": 5852,
      "Ġcycle": 5853,
      "ĠCy": 5854,
      "Ġlabel": 5855,
      "ĠThanks": 5856,
      "Ġinput": 5857,
      "Ġtrig": 5858,
      "inder": 5859,
      "Ġfacts": 5860,
      "Ġfeedback": 5861,
      "Ġbelieved": 5862,
      "Ġholiday": 5863,
      "real": 5864,
      "Ġcorrespond": 5865,
      "itutional": 5866,
      "ĠMel": 5867,
      "Ġrandom": 5868,
      "esterday": 5869,
      "Ġsymbol": 5870,
      "ĠHol": 5871,
      "Ġconstantly": 5872,
      "Ġtypical": 5873,
      "ĠLeague": 5874,
      "ĠJose": 5875,
      "aser": 5876,
      "Ġlocations": 5877,
      "Ġcoast": 5878,
      "emic": 5879,
      "ker": 5880,
      "Ġdance": 5881,
      "Ġisland": 5882,
      "ĠJewish": 5883,
      "ensions": 5884,
      "alse": 5885,
      "omy": 5886,
      "ĠAtl": 5887,
      "ĠStand": 5888,
      "ĠRo": 5889,
      "Ġassets": 5890,
      "Ġfacility": 5891,
      "Ġmedicine": 5892,
      "Â®": 5893,
      "Ġslowly": 5894,
      "Ġexecutive": 5895,
      "ĠAnother": 5896,
      "arn": 5897,
      "okes": 5898,
      "Ġslot": 5899,
      "Ġchart": 5900,
      "Ġcommitment": 5901,
      "ems": 5902,
      "ĠEconom": 5903,
      "nect": 5904,
      "Ġissued": 5905,
      "More": 5906,
      "ĠLo": 5907,
      "Ġreput": 5908,
      "arrow": 5909,
      "ĠThus": 5910,
      "PR": 5911,
      "Ġguard": 5912,
      "Ġfixed": 5913,
      "Ġtun": 5914,
      "Ġsupporting": 5915,
      "Ġeducational": 5916,
      "Ġstatements": 5917,
      "Ġwithd": 5918,
      "Ġoutput": 5919,
      "Ġsituations": 5920,
      "Every": 5921,
      "bi": 5922,
      "Ġregulations": 5923,
      "Ġvit": 5924,
      "Ġmoments": 5925,
      "een": 5926,
      "ĠWall": 5927,
      "merce": 5928,
      "Ġformed": 5929,
      "Ġguests": 5930,
      "Ġvital": 5931,
      "ags": 5932,
      "Ġbattery": 5933,
      "ĠIll": 5934,
      "Ġlaugh": 5935,
      "nergy": 5936,
      "Ġteen": 5937,
      "VID": 5938,
      "oga": 5939,
      "Ġsick": 5940,
      "ĠMot": 5941,
      "Ġconducted": 5942,
      "ĠMicrosoft": 5943,
      "ĠCommunity": 5944,
      "Ġreceiving": 5945,
      "aren": 5946,
      "Ġserving": 5947,
      "Ġagencies": 5948,
      "ĠExper": 5949,
      "ĠFire": 5950,
      "ĠSand": 5951,
      "gas": 5952,
      "66": 5953,
      "comes": 5954,
      "ĠJoe": 5955,
      "ĠNor": 5956,
      "ĠOR": 5957,
      "Ġconflict": 5958,
      "Most": 5959,
      "ĠMedical": 5960,
      "ey": 5961,
      "Ġadvis": 5962,
      "Ġhousehold": 5963,
      "Ġperman": 5964,
      "ĠNov": 5965,
      "Ġindustrial": 5966,
      "anish": 5967,
      "ĠProduct": 5968,
      "Ġmeat": 5969,
      "âĢĻ.": 5970,
      "urally": 5971,
      "hent": 5972,
      "Ġinvestors": 5973,
      "mosp": 5974,
      "ĠThank": 5975,
      "Ġfly": 5976,
      "Ġhighlight": 5977,
      "Ġcommission": 5978,
      "Ġgrew": 5979,
      "Ġcrucial": 5980,
      "Ġpositions": 5981,
      "Ġusual": 5982,
      "Ġassessment": 5983,
      "Ġadministr": 5984,
      "ĠSecond": 5985,
      "Ġanswers": 5986,
      "UT": 5987,
      "Ġstars": 5988,
      "Ġargument": 5989,
      "Ġsurprise": 5990,
      "ĠSpecial": 5991,
      "ingu": 5992,
      "gage": 5993,
      "oston": 5994,
      "ĠAT": 5995,
      "orders": 5996,
      "Ġdiscussed": 5997,
      "ĠMinister": 5998,
      "Ġorders": 5999,
      "Ġdistinct": 6000,
      "Ġgro": 6001,
      "ounder": 6002,
      "Ġnurs": 6003,
      "Ġincreases": 6004,
      "ĠEr": 6005,
      "Ġinfrastructure": 6006,
      "Ġengage": 6007,
      "Ġfighting": 6008,
      "ĠLand": 6009,
      "Ġsquare": 6010,
      "Ġstim": 6011,
      "Ġmessages": 6012,
      "Ġworst": 6013,
      "Ġremaining": 6014,
      "Ġextent": 6015,
      "Ġfavour": 6016,
      "enced": 6017,
      "met": 6018,
      "ĠJapanese": 6019,
      "Ġrealized": 6020,
      "Ġrecorded": 6021,
      "ĠJul": 6022,
      "Ġlayer": 6023,
      "Ġtea": 6024,
      "Ġbehavi": 6025,
      "sembly": 6026,
      "Ġvacc": 6027,
      "ĠRE": 6028,
      "ighter": 6029,
      "Ġepisode": 6030,
      "Ġpolitics": 6031,
      "Ġregularly": 6032,
      "ĠIP": 6033,
      "ĠJohnson": 6034,
      "Ġchosen": 6035,
      "Ġresource": 6036,
      "Ġbodies": 6037,
      "Ġchannel": 6038,
      "Ġhurt": 6039,
      "ĠMa": 6040,
      "Ġlibrary": 6041,
      "Ġpossibility": 6042,
      "ĠRad": 6043,
      "DF": 6044,
      "ĠDig": 6045,
      "Ġprocedures": 6046,
      "reprene": 6047,
      "Ġlunch": 6048,
      "ĠMuslim": 6049,
      "Ġafternoon": 6050,
      "BS": 6051,
      "ĠReal": 6052,
      "Ġaccurate": 6053,
      "Ġmeal": 6054,
      "uce": 6055,
      "Ġsyn": 6056,
      "Ġcapable": 6057,
      "Ġdram": 6058,
      "Ġneighborhood": 6059,
      "burg": 6060,
      "Ġflo": 6061,
      "Ġfeelings": 6062,
      "hi": 6063,
      "Ġturning": 6064,
      "wing": 6065,
      "Ġboys": 6066,
      "Cont": 6067,
      "isms": 6068,
      "Ġfantastic": 6069,
      "ĠYOU": 6070,
      "Ġcompens": 6071,
      "ĠFederal": 6072,
      "Ġautomatically": 6073,
      "Ġenable": 6074,
      "Ġenforce": 6075,
      "Ġvirtual": 6076,
      "rect": 6077,
      "Ġdeposit": 6078,
      "ĠValley": 6079,
      "Ġgrown": 6080,
      "Ġsuitable": 6081,
      "Ġemployment": 6082,
      "Ġdebate": 6083,
      "Ġvib": 6084,
      "oking": 6085,
      "irms": 6086,
      "Ġscr": 6087,
      "ĠNY": 6088,
      "ĠCEO": 6089,
      "ĠProte": 6090,
      "Ġrecognize": 6091,
      "Ġcarefully": 6092,
      "othe": 6093,
      "greg": 6094,
      "Ġplate": 6095,
      "Ġspoke": 6096,
      "Americ": 6097,
      "ums": 6098,
      "Ġspons": 6099,
      "Ġcarbon": 6100,
      "stood": 6101,
      "Ġbuildings": 6102,
      "Ġconsistent": 6103,
      "Ġentered": 6104,
      "Ġultimately": 6105,
      "ambling": 6106,
      "Ġdecor": 6107,
      "ĠBible": 6108,
      "uts": 6109,
      "Ġ195": 6110,
      "Ġcompetitive": 6111,
      "Phone": 6112,
      "Ġmuscle": 6113,
      "Ġpicked": 6114,
      "Ġille": 6115,
      "Oh": 6116,
      "ĠTechnology": 6117,
      "ĠMen": 6118,
      "Ġprove": 6119,
      "Ġcounsel": 6120,
      "vi": 6121,
      "ĠFurther": 6122,
      "Ġscript": 6123,
      "ĠMaster": 6124,
      "Ġboat": 6125,
      "Ġmenu": 6126,
      "Ġmel": 6127,
      "Ġofficers": 6128,
      "Ġchain": 6129,
      "ĠColor": 6130,
      "ocation": 6131,
      "oty": 6132,
      "Ġvehicles": 6133,
      "Ġtasks": 6134,
      "Ġbanks": 6135,
      "Ġfields": 6136,
      "ĠBas": 6137,
      "Ġfuck": 6138,
      "ĠFund": 6139,
      "42": 6140,
      "eration": 6141,
      "Ġbear": 6142,
      "AG": 6143,
      "Ġaudio": 6144,
      "grade": 6145,
      "ĠMaybe": 6146,
      "Ġsubsequ": 6147,
      "Ġcomprehensive": 6148,
      "ĠMike": 6149,
      "ĠLos": 6150,
      "ocket": 6151,
      "].": 6152,
      "Ġbrands": 6153,
      "Ġmilk": 6154,
      "Ġfairly": 6155,
      "Ġlosing": 6156,
      "Ġvast": 6157,
      "ket": 6158,
      "irmed": 6159,
      "Ġadm": 6160,
      "ĠAsia": 6161,
      "ĠLight": 6162,
      "car": 6163,
      "Ġbless": 6164,
      "Ġbike": 6165,
      "Ġphase": 6166,
      "cers": 6167,
      "rible": 6168,
      "rome": 6169,
      "eline": 6170,
      "ĠBob": 6171,
      "Tr": 6172,
      "Ġroutine": 6173,
      "Ġrelief": 6174,
      "ĠArab": 6175,
      "Ġveter": 6176,
      "Ġmachines": 6177,
      "ulous": 6178,
      "Ġreferred": 6179,
      "Ġkne": 6180,
      "ĠMcC": 6181,
      "uated": 6182,
      "Ġprofit": 6183,
      "Ġclothes": 6184,
      "Ġconvention": 6185,
      "Ġriver": 6186,
      "SP": 6187,
      "fortunately": 6188,
      "rated": 6189,
      "Ġlicense": 6190,
      "ellect": 6191,
      "ĠHen": 6192,
      "anges": 6193,
      "ĠDou": 6194,
      "Ġwarrant": 6195,
      "Ġperfectly": 6196,
      "________": 6197,
      "edia": 6198,
      "Ġpulled": 6199,
      "ĠBefore": 6200,
      "ographic": 6201,
      "Ġswim": 6202,
      "Ġgall": 6203,
      "Ġnarr": 6204,
      "Ġaffili": 6205,
      "Des": 6206,
      "ĠFamily": 6207,
      "Ġcommittee": 6208,
      "Ġroute": 6209,
      "Ġfolks": 6210,
      "85": 6211,
      "Ġyounger": 6212,
      "Ġsettings": 6213,
      "Ġhouses": 6214,
      "Ġdelay": 6215,
      "Ġauthors": 6216,
      "Ġplanned": 6217,
      "Ġneck": 6218,
      "Ġauthorities": 6219,
      "Ġwearing": 6220,
      "Ġobtained": 6221,
      "gent": 6222,
      "Ġ32": 6223,
      "lla": 6224,
      "Ġhorse": 6225,
      "agon": 6226,
      "hus": 6227,
      "acks": 6228,
      "pes": 6229,
      "Ġnuclear": 6230,
      "inet": 6231,
      "rog": 6232,
      "ĠHistory": 6233,
      "Ġcrew": 6234,
      "UN": 6235,
      "Ġfellow": 6236,
      "Then": 6237,
      "FL": 6238,
      "amental": 6239,
      "owing": 6240,
      "Ġholds": 6241,
      "Ġnoticed": 6242,
      "Ġdomestic": 6243,
      "Ġpump": 6244,
      "Ġattrib": 6245,
      "ĠProv": 6246,
      "Ġkeeps": 6247,
      "ĠFil": 6248,
      "ua": 6249,
      "Ġincl": 6250,
      "ĠAbout": 6251,
      "alian": 6252,
      "Ġexternal": 6253,
      "Ġid": 6254,
      "ĠInvest": 6255,
      "ĠDen": 6256,
      "Ġefficiency": 6257,
      "Ġvul": 6258,
      ".|": 6259,
      "ĠLab": 6260,
      "Ġinvestigation": 6261,
      "Ġsuc": 6262,
      "ultural": 6263,
      "azz": 6264,
      "Ġprinciples": 6265,
      "reens": 6266,
      "ployment": 6267,
      "Ġnegoti": 6268,
      "host": 6269,
      "Ġstands": 6270,
      "ĠPan": 6271,
      "Ġrevealed": 6272,
      "Once": 6273,
      "Ġrecognized": 6274,
      "Ġhumans": 6275,
      "Ġpil": 6276,
      "estyle": 6277,
      "Ġunp": 6278,
      "ĠNOT": 6279,
      "Ġextended": 6280,
      "Ġunable": 6281,
      "ĠGlobal": 6282,
      "OC": 6283,
      "Ġshift": 6284,
      "Ġast": 6285,
      "Ġwalls": 6286,
      "Ġskill": 6287,
      "Ġpayments": 6288,
      "Ġprotected": 6289,
      "Ġstood": 6290,
      "Ġsuggests": 6291,
      "ĠDev": 6292,
      "ĠMusic": 6293,
      "ĠOffic": 6294,
      "Ġ36": 6295,
      "Ġupper": 6296,
      "ĠSpirit": 6297,
      "Ġexpectations": 6298,
      "First": 6299,
      "rency": 6300,
      "Ġshares": 6301,
      "ala": 6302,
      "ĠID": 6303,
      "Ġnecessarily": 6304,
      "??": 6305,
      "Ġpharm": 6306,
      "Ġdisappoint": 6307,
      "stream": 6308,
      "Ġprompt": 6309,
      "Ġloans": 6310,
      "Ġphen": 6311,
      "Ġagents": 6312,
      "Ġretire": 6313,
      "ĠMedia": 6314,
      "reets": 6315,
      "43": 6316,
      "Ġsight": 6317,
      "Ġpersons": 6318,
      "Ġgrab": 6319,
      "41": 6320,
      "ĠMexico": 6321,
      "Ġmeetings": 6322,
      "Ġatmosp": 6323,
      "Ġcategory": 6324,
      "Ġpublish": 6325,
      "Ġguarantee": 6326,
      "Ġconfirm": 6327,
      "Ġcutting": 6328,
      "ATION": 6329,
      "Ġtalked": 6330,
      "Ġplanet": 6331,
      "Ġexposure": 6332,
      "ĠVict": 6333,
      "Ġhook": 6334,
      "Ġdepth": 6335,
      "Ġliquid": 6336,
      "Ġcandidates": 6337,
      "Ġchallenging": 6338,
      "Many": 6339,
      "aks": 6340,
      "Ġrenew": 6341,
      "ĠDoes": 6342,
      "Ġtrend": 6343,
      "esides": 6344,
      "abled": 6345,
      "iams": 6346,
      "Ġancient": 6347,
      "rieved": 6348,
      "Ġsevere": 6349,
      "Ġbare": 6350,
      "ĠâĢ¢": 6351,
      "nov": 6352,
      "alle": 6353,
      "Ġlaunched": 6354,
      "Ġpatterns": 6355,
      "Ġresistance": 6356,
      "ĠBeach": 6357,
      "Ġstruggle": 6358,
      "Ġbasically": 6359,
      "Ġreaction": 6360,
      "Ġobviously": 6361,
      "Ġcounty": 6362,
      "Ġintelligence": 6363,
      "Ġnewsp": 6364,
      "oval": 6365,
      "Ġprecise": 6366,
      "Ġparticipate": 6367,
      "Ġorganic": 6368,
      "Ġregional": 6369,
      "Ġtast": 6370,
      "ĠStart": 6371,
      "ĠEU": 6372,
      "Ġdescribe": 6373,
      "ĠMur": 6374,
      "Ġsusp": 6375,
      "Ġreligion": 6376,
      "ĠEnter": 6377,
      "Ġtail": 6378,
      "ansion": 6379,
      "ĠCall": 6380,
      "Ġnavig": 6381,
      "ĠÃ": 6382,
      "she": 6383,
      "Ġsurprised": 6384,
      "ĠYet": 6385,
      "Ġsomewhat": 6386,
      "iner": 6387,
      "Ġresearchers": 6388,
      "ĠMuseum": 6389,
      "Ġmillions": 6390,
      "Ġsupplement": 6391,
      "ĠOper": 6392,
      "Ġdescription": 6393,
      "Ġphilosoph": 6394,
      "ĠLead": 6395,
      "Ġreliable": 6396,
      "!)": 6397,
      "ĠKnow": 6398,
      "uls": 6399,
      "writ": 6400,
      "nic": 6401,
      "ocolate": 6402,
      "Ġreward": 6403,
      "Ġped": 6404,
      "cons": 6405,
      "ĠTeam": 6406,
      "Ġwid": 6407,
      "ĠChris": 6408,
      "ĠAdminist": 6409,
      "ĠCH": 6410,
      "Ġcro": 6411,
      "Ġobserved": 6412,
      "ĠTem": 6413,
      "Ġbreath": 6414,
      "Ġnetworks": 6415,
      "ĠHim": 6416,
      "Ġimprovement": 6417,
      "olec": 6418,
      "Ġexpertise": 6419,
      "Ġhealthcare": 6420,
      "ĠNetwork": 6421,
      "Ġgrade": 6422,
      "Ġdecade": 6423,
      "ĠKeep": 6424,
      "ideo": 6425,
      "Ġmissed": 6426,
      "Ġdealing": 6427,
      "elf": 6428,
      "Ġpersonally": 6429,
      "ĠJeff": 6430,
      "Ġsuddenly": 6431,
      "ĠSum": 6432,
      "po": 6433,
      "Ġcharged": 6434,
      "Ġresulting": 6435,
      "ta": 6436,
      "Ġcock": 6437,
      "ĠCanadian": 6438,
      "apes": 6439,
      "aniel": 6440,
      "Ġappreciate": 6441,
      "uine": 6442,
      "igned": 6443,
      "icing": 6444,
      "Ġmonthly": 6445,
      "Ġseriously": 6446,
      "Ġcandidate": 6447,
      "ĠHaw": 6448,
      "Ġbread": 6449,
      "inations": 6450,
      "Ġtaxes": 6451,
      "Ġpp": 6452,
      "ĠSenate": 6453,
      "Ġsalt": 6454,
      "ĠSar": 6455,
      "Ġtransition": 6456,
      "ĠMS": 6457,
      "Although": 6458,
      "ĠJones": 6459,
      "ĠRight": 6460,
      "Ġincredible": 6461,
      "ĠRichard": 6462,
      "ĠAdv": 6463,
      "Ġfigures": 6464,
      "Ġsucceed": 6465,
      "Ġmanufacturing": 6466,
      "ĠPR": 6467,
      "Ġpin": 6468,
      ".||": 6469,
      "gypt": 6470,
      "Read": 6471,
      "Ġisol": 6472,
      "racy": 6473,
      "ĠSup": 6474,
      "Ġconstant": 6475,
      "ĠAD": 6476,
      "ĠBoston": 6477,
      "Ġlights": 6478,
      "Ġpursu": 6479,
      "----": 6480,
      "ĠAff": 6481,
      "Ġwindows": 6482,
      "ĠPac": 6483,
      "agues": 6484,
      "Ġregistered": 6485,
      "abetes": 6486,
      "Ġinspired": 6487,
      "Ġtechnique": 6488,
      "Ġpremium": 6489,
      "Ġhate": 6490,
      "lock": 6491,
      "Ġtack": 6492,
      "Ġrow": 6493,
      "eding": 6494,
      "Ġhonor": 6495,
      "Ġincreasingly": 6496,
      "ye": 6497,
      "Ġrein": 6498,
      "Ġchapter": 6499,
      "ĠWal": 6500,
      "CS": 6501,
      "Ġinstructions": 6502,
      "Ġyards": 6503,
      "Ġsmile": 6504,
      "illy": 6505,
      "Ġvillage": 6506,
      "Ġwheel": 6507,
      "Ġproof": 6508,
      "ĠON": 6509,
      "Ġexpressed": 6510,
      "Ġtopics": 6511,
      "Ġreporting": 6512,
      "ĠLim": 6513,
      "Ġlegs": 6514,
      "Ġattorney": 6515,
      "Ġfalse": 6516,
      "Ġlistening": 6517,
      "comm": 6518,
      "ora": 6519,
      "Ġ300": 6520,
      "Ġpossess": 6521,
      "Ġcompr": 6522,
      "ownt": 6523,
      "Ġempt": 6524,
      "Of": 6525,
      "Ġawesome": 6526,
      "Ġrepeated": 6527,
      "ĠLink": 6528,
      "Ġtalent": 6529,
      "Ġmand": 6530,
      "Ġdeals": 6531,
      "ĠAngeles": 6532,
      "Ġvictory": 6533,
      "Ġmountain": 6534,
      "Ġfoundation": 6535,
      "Ġgod": 6536,
      "iverse": 6537,
      "Ġlux": 6538,
      "Ġshipping": 6539,
      "anger": 6540,
      "Ġawareness": 6541,
      "Ġneither": 6542,
      "Ġdrivers": 6543,
      "Ġheav": 6544,
      "law": 6545,
      "Ġlie": 6546,
      "ĠMartin": 6547,
      "Add": 6548,
      "Ġfacing": 6549,
      "Ġhell": 6550,
      "Ġacts": 6551,
      "ĠLee": 6552,
      "Ġspr": 6553,
      "Ġnormally": 6554,
      "raid": 6555,
      "Ġdegrees": 6556,
      "Ġelig": 6557,
      "Ġ1999": 6558,
      "ĠVirginia": 6559,
      "iments": 6560,
      "Ġinformed": 6561,
      "Ġextensive": 6562,
      "rooms": 6563,
      "Ġplatforms": 6564,
      "Ġanxiety": 6565,
      "Ġgender": 6566,
      "Ġexistence": 6567,
      "Ġdomin": 6568,
      "Ġregister": 6569,
      "Ġdomain": 6570,
      "whel": 6571,
      "Get": 6572,
      "long": 6573,
      "Ġamend": 6574,
      "ĠMatt": 6575,
      "According": 6576,
      "Ġconver": 6577,
      "gend": 6578,
      "Ġevil": 6579,
      "Ġbrown": 6580,
      "ĠMiddle": 6581,
      "entle": 6582,
      "Ġsuffering": 6583,
      "atre": 6584,
      "Ġlegislation": 6585,
      "ĠWild": 6586,
      "Ġwriters": 6587,
      "pel": 6588,
      "Since": 6589,
      "ĠHead": 6590,
      "Ġpurchased": 6591,
      "ĠSite": 6592,
      "Ġobjects": 6593,
      "Ġlargely": 6594,
      "Ġworldwide": 6595,
      "ĠStep": 6596,
      "vy": 6597,
      "Ġprepar": 6598,
      "Ġprospect": 6599,
      "ĠAward": 6600,
      "Ġdiscipl": 6601,
      "ĠBre": 6602,
      "ĠGra": 6603,
      "weight": 6604,
      "08": 6605,
      "Mr": 6606,
      "Ġinvent": 6607,
      "ĠBush": 6608,
      "Ġmonitoring": 6609,
      "Ġfabric": 6610,
      "west": 6611,
      "otes": 6612,
      "Ġannounce": 6613,
      "Ġtiny": 6614,
      "Ġathlet": 6615,
      "Ġevol": 6616,
      "Even": 6617,
      "Ġresolution": 6618,
      "teen": 6619,
      "Ġupdated": 6620,
      "Ġsky": 6621,
      "Ġreturns": 6622,
      "Ã¡": 6623,
      "ching": 6624,
      "Ġven": 6625,
      "Ġduty": 6626,
      "Ġcooper": 6627,
      "Ġoperate": 6628,
      "ĠEnd": 6629,
      "TA": 6630,
      "ĠSon": 6631,
      "Ġengineering": 6632,
      "Ġabsor": 6633,
      "Ġhall": 6634,
      "ĠList": 6635,
      "ache": 6636,
      "Ġdatabase": 6637,
      "Ġaffordable": 6638,
      "âĦ": 6639,
      "Ġshooting": 6640,
      "ĠPenn": 6641,
      "Ġdesigns": 6642,
      "Ġtables": 6643,
      "Ġnative": 6644,
      "ĠEnergy": 6645,
      "ĠShow": 6646,
      "Ġfacilit": 6647,
      "Ġcovers": 6648,
      "Ġerr": 6649,
      "ĠExt": 6650,
      "aning": 6651,
      "Am": 6652,
      "Ġanticip": 6653,
      "EE": 6654,
      "ĠGal": 6655,
      "ĠParis": 6656,
      "Ġwidely": 6657,
      "ðŁ": 6658,
      "09": 6659,
      "Ġopposite": 6660,
      "uling": 6661,
      "ĠVer": 6662,
      "ĠSqu": 6663,
      "86": 6664,
      "Ġdoors": 6665,
      "bel": 6666,
      "Ġimmediate": 6667,
      "Ġentit": 6668,
      "Ġweapons": 6669,
      "ints": 6670,
      "ether": 6671,
      "Ġleague": 6672,
      "ras": 6673,
      "Res": 6674,
      "Ġcentre": 6675,
      "Ġconserv": 6676,
      "Ġsurrounding": 6677,
      "Ġmainly": 6678,
      "Ġheight": 6679,
      "Ġinstruct": 6680,
      "Ġpresentation": 6681,
      "ĠWay": 6682,
      "ĠAndroid": 6683,
      "agra": 6684,
      "usher": 6685,
      "va": 6686,
      "earing": 6687,
      "Ind": 6688,
      "Ġsmell": 6689,
      "Ġhabit": 6690,
      "Ġbutter": 6691,
      "Ġteeth": 6692,
      "Ġtum": 6693,
      "Ġsoil": 6694,
      "Ġthorough": 6695,
      "rick": 6696,
      "Ġsuccessfully": 6697,
      "ĠCat": 6698,
      "Ġsupports": 6699,
      "Ġscholars": 6700,
      "Ġsurf": 6701,
      "ĠIndust": 6702,
      "isters": 6703,
      "ĠWhether": 6704,
      "Ġelev": 6705,
      "Ġliked": 6706,
      "Ġdiverse": 6707,
      "ĠCatholic": 6708,
      "Ġthin": 6709,
      "Ġpercentage": 6710,
      "Ġcrazy": 6711,
      "Ġstorm": 6712,
      "ĠTerm": 6713,
      "Ġclosely": 6714,
      "Ġillness": 6715,
      "Ġcooking": 6716,
      "astern": 6717,
      "Ġinvention": 6718,
      "yers": 6719,
      "ĠPlus": 6720,
      "Ġunderstood": 6721,
      "ĠAud": 6722,
      "inent": 6723,
      "ĠGame": 6724,
      "cking": 6725,
      "Ġimpressive": 6726,
      "lder": 6727,
      "Ġdropped": 6728,
      "rage": 6729,
      "och": 6730,
      "Te": 6731,
      "Ġinstalled": 6732,
      "Ġstrange": 6733,
      "Ġcollected": 6734,
      "Ġreject": 6735,
      "ih": 6736,
      "ĠPolic": 6737,
      "Ġprimarily": 6738,
      "oned": 6739,
      "ĠDu": 6740,
      "Ġshoes": 6741,
      "lete": 6742,
      "urning": 6743,
      "Ġnarrow": 6744,
      "Ġtwenty": 6745,
      "Ġlad": 6746,
      "Ġclar": 6747,
      "Ġinvolves": 6748,
      "ĠFind": 6749,
      "ĠCA": 6750,
      "Ġ75": 6751,
      "Ġexperiment": 6752,
      "Ġongoing": 6753,
      "ĠCharl": 6754,
      "Ġowned": 6755,
      "Ġinnovation": 6756,
      "Ġpapers": 6757,
      "Ġprivacy": 6758,
      "icy": 6759,
      "ĠRepublican": 6760,
      "Ġamounts": 6761,
      "rid": 6762,
      "Ġmixed": 6763,
      "âĢĻ,": 6764,
      "Ġpassing": 6765,
      "olar": 6766,
      "âĦ¢": 6767,
      "ĠInte": 6768,
      "Ġvulner": 6769,
      "ĠPage": 6770,
      "Ġdepends": 6771,
      "Ġintention": 6772,
      "PC": 6773,
      "Ġplug": 6774,
      "celer": 6775,
      "Sp": 6776,
      "awn": 6777,
      "Ġbull": 6778,
      "ĠChief": 6779,
      "sm": 6780,
      "from": 6781,
      "Ġfiled": 6782,
      "ystem": 6783,
      "Ġjack": 6784,
      "Ġpill": 6785,
      "Please": 6786,
      "resents": 6787,
      "Ġpotentially": 6788,
      "ĠAR": 6789,
      "ĠJon": 6790,
      "ifies": 6791,
      "Ġaside": 6792,
      "Ġreduction": 6793,
      "athy": 6794,
      "Ġexplains": 6795,
      "Ġrail": 6796,
      "Ġpromise": 6797,
      "Ġdefinition": 6798,
      "Ġsomewhere": 6799,
      "ĠSeries": 6800,
      "ĠCarolina": 6801,
      "ĠÎ": 6802,
      "Us": 6803,
      "Ġfasc": 6804,
      "ĠAgain": 6805,
      "Ġwet": 6806,
      "Ġphr": 6807,
      "Ġworksh": 6808,
      "Ġgenerate": 6809,
      "ĠFather": 6810,
      "Ġconsideration": 6811,
      "Ġanyway": 6812,
      "Ġyesterday": 6813,
      "07": 6814,
      "aints": 6815,
      "Ġguidance": 6816,
      "ĠTown": 6817,
      "level": 6818,
      "ĠiPhone": 6819,
      "Ġpills": 6820,
      "Ġenthus": 6821,
      "ĠBoy": 6822,
      "ĠThrough": 6823,
      "coin": 6824,
      "ĠWilliams": 6825,
      "ĠKh": 6826,
      "ĠEp": 6827,
      "Ġsolar": 6828,
      "Ġtrick": 6829,
      "born": 6830,
      "Ġremained": 6831,
      "Ġrevolution": 6832,
      "Ġadds": 6833,
      "Ġauthent": 6834,
      "ĠMax": 6835,
      "rich": 6836,
      "Ġterrit": 6837,
      "ĠYoung": 6838,
      "ERS": 6839,
      "Or": 6840,
      "Ġguest": 6841,
      "sell": 6842,
      "Ġconfig": 6843,
      "Mar": 6844,
      "ĠAri": 6845,
      "uality": 6846,
      "Ġconscious": 6847,
      "erts": 6848,
      "Ġreader": 6849,
      "Ġgenuine": 6850,
      ".;": 6851,
      "ĠCBD": 6852,
      "Ġ1990": 6853,
      "cific": 6854,
      "Ġmusical": 6855,
      "ĠEgypt": 6856,
      "ĠJustice": 6857,
      "inally": 6858,
      "Over": 6859,
      "Ġpm": 6860,
      "Ġmoves": 6861,
      "oral": 6862,
      "Ġaggress": 6863,
      "Ġlimits": 6864,
      "Ġmerely": 6865,
      "ĠControl": 6866,
      "eries": 6867,
      "Ġguidelines": 6868,
      "Qu": 6869,
      "Ġexpenses": 6870,
      "Im": 6871,
      "Ġsurprising": 6872,
      "Ġbreakfast": 6873,
      "ĠNE": 6874,
      "ĠAustralian": 6875,
      "Ġafraid": 6876,
      "Ġrecon": 6877,
      "Ġlinked": 6878,
      "Ġentreprene": 6879,
      "Ġwatched": 6880,
      "mar": 6881,
      "athe": 6882,
      "Ġestimated": 6883,
      "06": 6884,
      "Ġengaged": 6885,
      "ĠCup": 6886,
      "Ġletters": 6887,
      "Ġweren": 6888,
      "pir": 6889,
      "Ġ1998": 6890,
      "Ġjudgment": 6891,
      "Ġparking": 6892,
      "76": 6893,
      "MA": 6894,
      "Ġcomponent": 6895,
      "Ġoriginally": 6896,
      "Ġnom": 6897,
      "Ġlatter": 6898,
      "Ġoverwhel": 6899,
      "Ġachieved": 6900,
      "Ġease": 6901,
      "Ġinnovative": 6902,
      "Ġbelieves": 6903,
      "Ġfurniture": 6904,
      "ĠSometimes": 6905,
      "Ġfing": 6906,
      "Ġinstallation": 6907,
      "DS": 6908,
      "Ġcausing": 6909,
      "mond": 6910,
      "Ġliterature": 6911,
      "Ġexceed": 6912,
      "ancial": 6913,
      "Ġintellect": 6914,
      "Pe": 6915,
      "ĠAuthor": 6916,
      "Ġzone": 6917,
      "stone": 6918,
      "bles": 6919,
      "Ġrestaurants": 6920,
      "Ġheads": 6921,
      "Ġcreates": 6922,
      "Ġtested": 6923,
      "04": 6924,
      "Ġ<": 6925,
      "Ġyield": 6926,
      "Ġupdates": 6927,
      "Ġfunny": 6928,
      "Ġinterface": 6929,
      "ĠBow": 6930,
      "sters": 6931,
      "Ġbasket": 6932,
      "Ġdiam": 6933,
      "ĠUsing": 6934,
      "Ġserves": 6935,
      "Ġcomparison": 6936,
      "Ġstreets": 6937,
      "See": 6938,
      "Ġcontribute": 6939,
      "onym": 6940,
      "asant": 6941,
      "eting": 6942,
      "Ġengagement": 6943,
      "Ġaccord": 6944,
      "Ġurban": 6945,
      "Ġnaturally": 6946,
      "Ġ48": 6947,
      "oman": 6948,
      "iences": 6949,
      "Ġrepresents": 6950,
      "ĠFOR": 6951,
      "GB": 6952,
      "Ġearned": 6953,
      "Ġwithdraw": 6954,
      "Ġordered": 6955,
      "inem": 6956,
      "ĠPub": 6957,
      "rition": 6958,
      "Ġregistration": 6959,
      "Ġrecipe": 6960,
      "Ġdivid": 6961,
      "Any": 6962,
      "Ġinstrument": 6963,
      "ĠSuch": 6964,
      "ĠEqu": 6965,
      "Ġunw": 6966,
      "Ð¸": 6967,
      "appy": 6968,
      "Ġpra": 6969,
      "Ġfundamental": 6970,
      "ĠCost": 6971,
      "ĠMrs": 6972,
      "ĠConference": 6973,
      "CO": 6974,
      "Ġsessions": 6975,
      "ĠHoly": 6976,
      "zing": 6977,
      "ressed": 6978,
      "ĠArmy": 6979,
      "02": 6980,
      "Ġimproving": 6981,
      "Ġinches": 6982,
      "inity": 6983,
      "Ġcampus": 6984,
      "Ġwest": 6985,
      "asters": 6986,
      "efully": 6987,
      "Ġbact": 6988,
      "Ġinfection": 6989,
      "ĠFar": 6990,
      "Ġpleasure": 6991,
      "ashed": 6992,
      "lers": 6993,
      "Ġjur": 6994,
      "inte": 6995,
      "Ġera": 6996,
      "acc": 6997,
      "Ġindex": 6998,
      "achel": 6999,
      "ĠInf": 7000,
      "AY": 7001,
      "Ġstrategic": 7002,
      "making": 7003,
      "Ġinner": 7004,
      "ceived": 7005,
      "Ġgrass": 7006,
      "03": 7007,
      "ĠSet": 7008,
      "Ġextract": 7009,
      "Ġorganized": 7010,
      "Ġvisiting": 7011,
      "gs": 7012,
      "ĠJackson": 7013,
      "ĠCharles": 7014,
      "Where": 7015,
      "Ġfinds": 7016,
      "Ġdish": 7017,
      "Ġaccessible": 7018,
      "ĠMach": 7019,
      "Ġstudio": 7020,
      "Other": 7021,
      "Are": 7022,
      "Ġnoise": 7023,
      "ĠSupreme": 7024,
      "EST": 7025,
      "Ġlikes": 7026,
      "Ġphotograph": 7027,
      "Ġexplan": 7028,
      "rants": 7029,
      "Ġshouldn": 7030,
      "ĠDan": 7031,
      "Ġchose": 7032,
      "Ġentertainment": 7033,
      "RS": 7034,
      "Ġrelative": 7035,
      "iche": 7036,
      "Ġclaimed": 7037,
      "Ġoutcomes": 7038,
      "ĠWeek": 7039,
      "ĠSP": 7040,
      "ml": 7041,
      "Ġbeer": 7042,
      "Ġhang": 7043,
      "Ġscan": 7044,
      "Ġlifestyle": 7045,
      "ĠAcademy": 7046,
      "umps": 7047,
      "Ġconsequences": 7048,
      "Ġapproval": 7049,
      "Ġagric": 7050,
      "Ed": 7051,
      "ĠSpanish": 7052,
      "ounter": 7053,
      "Ġlicens": 7054,
      "then": 7055,
      "Ġfindings": 7056,
      "Ġtrained": 7057,
      "unn": 7058,
      "UL": 7059,
      "uster": 7060,
      "Ġlies": 7061,
      "Ġexception": 7062,
      "ĠExec": 7063,
      "ĠCode": 7064,
      "person": 7065,
      "ĠBell": 7066,
      "Ġroles": 7067,
      "Ġcontrolled": 7068,
      "ĠRest": 7069,
      "Ġgay": 7070,
      "BI": 7071,
      "adow": 7072,
      "Ġheaven": 7073,
      "ĠSecretary": 7074,
      "Ġdrinking": 7075,
      "raction": 7076,
      "Ġoutcome": 7077,
      "Ġmanual": 7078,
      "ĠLt": 7079,
      "Ġcolour": 7080,
      "ĠChildren": 7081,
      "inton": 7082,
      "class": 7083,
      "Ġmagazine": 7084,
      "89": 7085,
      "ipal": 7086,
      "Dr": 7087,
      "ĠHon": 7088,
      "Ġspin": 7089,
      "Ġcommunications": 7090,
      "Ġparam": 7091,
      "Ġtall": 7092,
      "roph": 7093,
      "Ġacting": 7094,
      "Ġrecording": 7095,
      "%.": 7096,
      "ĠColumb": 7097,
      "xic": 7098,
      "liament": 7099,
      "pay": 7100,
      "Â°": 7101,
      "Ġliterally": 7102,
      "umes": 7103,
      "Ġinteract": 7104,
      "acle": 7105,
      "Ġoccurred": 7106,
      "Ġborder": 7107,
      "ĠTrust": 7108,
      "Ġforever": 7109,
      "Ġreducing": 7110,
      "ĠOil": 7111,
      "aintiff": 7112,
      "Ġplot": 7113,
      "Ġformal": 7114,
      "tes": 7115,
      "uction": 7116,
      "Ġintegrated": 7117,
      "ĠItalian": 7118,
      "Ġnearby": 7119,
      "Ġimplementation": 7120,
      "Ġauto": 7121,
      "Ġlegit": 7122,
      "Ġmagic": 7123,
      "Ġcommonly": 7124,
      "tle": 7125,
      "amber": 7126,
      "Ġflood": 7127,
      "Man": 7128,
      "Ġoutdoor": 7129,
      "Ġarts": 7130,
      "Sc": 7131,
      "olit": 7132,
      "Ġchoosing": 7133,
      "ĠDid": 7134,
      "Ġpipe": 7135,
      "Ġchicken": 7136,
      "Ġdiseases": 7137,
      "ĠSoft": 7138,
      "Ġprotest": 7139,
      "Ġlovely": 7140,
      "ura": 7141,
      "Ġsacr": 7142,
      "ĠThough": 7143,
      "ĠFollow": 7144,
      "ĠCreat": 7145,
      "Last": 7146,
      "Ġalive": 7147,
      "ĠChair": 7148,
      "Ġreputation": 7149,
      "ba": 7150,
      "Ġsaved": 7151,
      "holders": 7152,
      "Ġintent": 7153,
      "lled": 7154,
      "ĠRetrieved": 7155,
      "omic": 7156,
      "Ġpod": 7157,
      "Ġtrends": 7158,
      "nam": 7159,
      "ĠFrancisco": 7160,
      "Ġguitar": 7161,
      "stein": 7162,
      "alysis": 7163,
      "Ġdispos": 7164,
      "Ġharder": 7165,
      "Ġadequ": 7166,
      "Ġincident": 7167,
      "Ġcareful": 7168,
      "onna": 7169,
      "ansas": 7170,
      "ĠWalk": 7171,
      "Ġrig": 7172,
      "essel": 7173,
      "ĠGeorg": 7174,
      "ĠFour": 7175,
      "Ġroot": 7176,
      "ĠHD": 7177,
      "Ġeverybody": 7178,
      "ĠOpt": 7179,
      "Ġconvenient": 7180,
      "Ġpitch": 7181,
      "Ġatmosphere": 7182,
      "Ġwave": 7183,
      "lude": 7184,
      "Ġpowers": 7185,
      "ĠSupport": 7186,
      "Ġreact": 7187,
      "usal": 7188,
      "Ġillegal": 7189,
      "ĠMichigan": 7190,
      "Ġalt": 7191,
      "swe": 7192,
      "Ġlessons": 7193,
      "ĠBrand": 7194,
      "Ġdirected": 7195,
      "Ġmuseum": 7196,
      "Ġstructures": 7197,
      "etime": 7198,
      "Ġsilver": 7199,
      "Ġhasn": 7200,
      "Ġinqu": 7201,
      "Ġdelight": 7202,
      "Ġhole": 7203,
      "Ġsubmit": 7204,
      "Ġpreferred": 7205,
      "ĠArts": 7206,
      "inking": 7207,
      "79": 7208,
      "Ġgaming": 7209,
      "Ġpounds": 7210,
      "Ġcontrols": 7211,
      "ĠHand": 7212,
      "ĠVan": 7213,
      "Ġglad": 7214,
      "obs": 7215,
      "Ġmanaging": 7216,
      "Ġdoctors": 7217,
      "ĠNever": 7218,
      "Ġrecommendations": 7219,
      "Ġevolution": 7220,
      "ĠCOVID": 7221,
      "Ġassume": 7222,
      "erate": 7223,
      "Ġeveryday": 7224,
      "Ġaccomplish": 7225,
      "ocracy": 7226,
      "HS": 7227,
      "Ġyellow": 7228,
      "Ġvend": 7229,
      "Ġregardless": 7230,
      "ĠEss": 7231,
      "lights": 7232,
      "Ġstuck": 7233,
      "Ġinjuries": 7234,
      "Ġcolon": 7235,
      "Ġalleged": 7236,
      "Ġhidden": 7237,
      "lymp": 7238,
      "Ġwhenever": 7239,
      "ĠHor": 7240,
      "Ġlandscape": 7241,
      "ĠConf": 7242,
      "uzz": 7243,
      "Ġvirus": 7244,
      "Ġchances": 7245,
      "etry": 7246,
      "ĠColl": 7247,
      "En": 7248,
      "Ġscientists": 7249,
      "ĠGuide": 7250,
      "Ġbell": 7251,
      "ught": 7252,
      "Ġtissue": 7253,
      "Ġoppon": 7254,
      "ĠManager": 7255,
      "Ġconcerning": 7256,
      "oken": 7257,
      "Ġconclusion": 7258,
      "Ġregions": 7259,
      "Ġmoral": 7260,
      "Ġsending": 7261,
      "Ġtradition": 7262,
      "ĠSign": 7263,
      "ĠSteve": 7264,
      "ĠGar": 7265,
      "Spe": 7266,
      "etary": 7267,
      "Ġpit": 7268,
      "Also": 7269,
      "Med": 7270,
      "Ġproven": 7271,
      "Ġconsumption": 7272,
      "Ġattached": 7273,
      "Ġpurs": 7274,
      "Ġpace": 7275,
      "including": 7276,
      "utor": 7277,
      "Ġsensitive": 7278,
      "rogen": 7279,
      "ca": 7280,
      "Ġtech": 7281,
      "Ġads": 7282,
      "Ġconsent": 7283,
      "uh": 7284,
      "Ġhat": 7285,
      "Ġreplaced": 7286,
      "Ġloves": 7287,
      "ĠFed": 7288,
      "itis": 7289,
      "bar": 7290,
      "igen": 7291,
      "âĤ¬": 7292,
      "Ġconfirmed": 7293,
      "uous": 7294,
      "uing": 7295,
      "Ġstake": 7296,
      "Ġbottle": 7297,
      "Ġapplicable": 7298,
      "ruption": 7299,
      "Ġsavings": 7300,
      "TC": 7301,
      "ĠView": 7302,
      "Ġincredibly": 7303,
      "Ġtank": 7304,
      "ĠCorporation": 7305,
      "Ġfilter": 7306,
      "ĠRights": 7307,
      "Ġspaces": 7308,
      "Ġundert": 7309,
      "Ġapparently": 7310,
      "VD": 7311,
      "rance": 7312,
      "Ġbroke": 7313,
      "Ġfeatured": 7314,
      "ĠWebs": 7315,
      "Ġsupplies": 7316,
      "ĠBal": 7317,
      "ÑĤ": 7318,
      "plate": 7319,
      "des": 7320,
      "ĠAccess": 7321,
      "ican": 7322,
      "haust": 7323,
      "Ġdates": 7324,
      "ĠLibrary": 7325,
      "Ġgambling": 7326,
      "Ġhardware": 7327,
      "Ġinfo": 7328,
      "Ġmurder": 7329,
      "Ġbat": 7330,
      "ĠCirc": 7331,
      "ĠVictor": 7332,
      "Ġprosec": 7333,
      "ĠCra": 7334,
      "Ġsubjects": 7335,
      "Ġsees": 7336,
      "leep": 7337,
      "isk": 7338,
      "ĠNon": 7339,
      "ĠOhio": 7340,
      "Ġcoal": 7341,
      "Ġsynt": 7342,
      "Ġwinner": 7343,
      "Ġgear": 7344,
      "Ġconvin": 7345,
      "Ġsustainable": 7346,
      "ĠFair": 7347,
      "ĠEll": 7348,
      "otal": 7349,
      "ĠCa": 7350,
      "John": 7351,
      "ilst": 7352,
      "Ġexposed": 7353,
      "Ġlaid": 7354,
      "zil": 7355,
      "Ġstronger": 7356,
      "Ġrear": 7357,
      "Ġblind": 7358,
      "Ġdesired": 7359,
      "Ġfo": 7360,
      "Ġru": 7361,
      "Ġstead": 7362,
      "Ġcapture": 7363,
      "Ġstrike": 7364,
      "Ġhyper": 7365,
      "ĠWatch": 7366,
      "Ġfirms": 7367,
      "ĠDC": 7368,
      "iana": 7369,
      "Ġconnections": 7370,
      "ĠStat": 7371,
      "56": 7372,
      "Ġloud": 7373,
      "Ġstro": 7374,
      "Ġportfol": 7375,
      "Ġanymore": 7376,
      "Ġsuffe": 7377,
      "ureau": 7378,
      "urd": 7379,
      "Ġempty": 7380,
      "Ġicon": 7381,
      "issions": 7382,
      "Ġcontest": 7383,
      "Ġcrypt": 7384,
      "ione": 7385,
      "asts": 7386,
      "Ġvisited": 7387,
      "ĠKey": 7388,
      "away": 7389,
      "Ġadventure": 7390,
      "Ġfro": 7391,
      "ĠPot": 7392,
      "Ġgraduate": 7393,
      "ĠCasino": 7394,
      "Ġbrowser": 7395,
      "ĠPen": 7396,
      "ologist": 7397,
      "ĠWhich": 7398,
      "tics": 7399,
      "Ġarmy": 7400,
      "bd": 7401,
      "Ġprofessor": 7402,
      "Ġcollaboration": 7403,
      "Ġtransp": 7404,
      "ĠDar": 7405,
      "Ġdriven": 7406,
      "Ġgranted": 7407,
      "ati": 7408,
      "Ġpainting": 7409,
      "ĠScot": 7410,
      "RI": 7411,
      "ulating": 7412,
      "Ġcontained": 7413,
      "Ġcharacteristics": 7414,
      "ĠNext": 7415,
      "ĠHard": 7416,
      "lessly": 7417,
      "iform": 7418,
      "Ġoccurs": 7419,
      "59": 7420,
      "Ġvictims": 7421,
      "Ġages": 7422,
      "Ġsearching": 7423,
      "Ġdrawn": 7424,
      "ogether": 7425,
      "Ġproposal": 7426,
      "ĠFull": 7427,
      "ĠGall": 7428,
      "âĢ¦.": 7429,
      "Ġslots": 7430,
      "Ġescape": 7431,
      "reland": 7432,
      "ogy": 7433,
      "Ġunus": 7434,
      "Ġrecognition": 7435,
      "Ġtact": 7436,
      "Post": 7437,
      "Ġbirthday": 7438,
      "Ġessentially": 7439,
      "Ġmembership": 7440,
      "date": 7441,
      "Ġcomplicated": 7442,
      "ĠSection": 7443,
      "Ġ1997": 7444,
      "Who": 7445,
      "MP": 7446,
      "SS": 7447,
      "Ġpointed": 7448,
      "ounded": 7449,
      "Ġhire": 7450,
      "ĠPass": 7451,
      "Ġequival": 7452,
      "Ġtor": 7453,
      "Ġproducing": 7454,
      "Ġchest": 7455,
      "Ġthousand": 7456,
      "ĠTit": 7457,
      "Ġstrict": 7458,
      "Ġdecent": 7459,
      "ĠApplic": 7460,
      "Ġshots": 7461,
      "Ġhoping": 7462,
      "ghan": 7463,
      "Ġtalks": 7464,
      "Ġcontemporary": 7465,
      "Ġsharp": 7466,
      "theless": 7467,
      "EP": 7468,
      "Ġpermanent": 7469,
      "neys": 7470,
      "Ġdeeply": 7471,
      "Ġframework": 7472,
      "Ġcheese": 7473,
      "Ġperforming": 7474,
      "nda": 7475,
      "Ġtip": 7476,
      "Ġdefault": 7477,
      "Ġrising": 7478,
      "ĠEs": 7479,
      "Ġobst": 7480,
      "requ": 7481,
      "ĠPolicy": 7482,
      "Ġborrow": 7483,
      "enger": 7484,
      "Ġ;": 7485,
      "pons": 7486,
      "estion": 7487,
      "ĠLittle": 7488,
      "ĠAndrew": 7489,
      "yc": 7490,
      "itage": 7491,
      "Ġgentle": 7492,
      "ĠOrder": 7493,
      "Ġtone": 7494,
      "arters": 7495,
      "Ġshel": 7496,
      "Ġedition": 7497,
      "Ġindu": 7498,
      "Ġseed": 7499,
      "Ġchannels": 7500,
      "utch": 7501,
      "Ġinvolving": 7502,
      "TER": 7503,
      "Ġzero": 7504,
      "During": 7505,
      "ĠPak": 7506,
      "Ġsolve": 7507,
      "Ġlawyer": 7508,
      "Ġcarrying": 7509,
      "Ġprohib": 7510,
      "Ġuncertain": 7511,
      "ampionship": 7512,
      "aze": 7513,
      "Ġhits": 7514,
      "Ġapartment": 7515,
      "ĠâĢĻ": 7516,
      "Ġnations": 7517,
      "ĠPhys": 7518,
      "LY": 7519,
      "yard": 7520,
      "Ġconcrete": 7521,
      "Ġfraud": 7522,
      "bits": 7523,
      "Ġunion": 7524,
      "Ġdynamic": 7525,
      "Ġenterprise": 7526,
      "front": 7527,
      "Ġcommunicate": 7528,
      "enth": 7529,
      "plete": 7530,
      "ĠLive": 7531,
      "ĠDigital": 7532,
      "Ġfaces": 7533,
      "ĠEnvironment": 7534,
      "ĠDNA": 7535,
      "ĠLog": 7536,
      "riers": 7537,
      "ĠWin": 7538,
      "ĠCross": 7539,
      "Ġrental": 7540,
      "ĠUt": 7541,
      "Ġeast": 7542,
      "ĠBon": 7543,
      "Ġknock": 7544,
      "Ġhealing": 7545,
      "Ġfalling": 7546,
      "Ġsheet": 7547,
      "iser": 7548,
      "ĠPrice": 7549,
      "anna": 7550,
      "Ġapproaches": 7551,
      "Ġfinance": 7552,
      "ĠCre": 7553,
      "anted": 7554,
      "Ġfaculty": 7555,
      "Ġtransportation": 7556,
      "ĠJoseph": 7557,
      "reement": 7558,
      "Ġintroduction": 7559,
      "Ġpand": 7560,
      "cribe": 7561,
      "ÑĢ": 7562,
      "ĠJun": 7563,
      "worth": 7564,
      "AB": 7565,
      "Ġtab": 7566,
      "ĠPack": 7567,
      "ĠHospital": 7568,
      "icted": 7569,
      "Ġpartnership": 7570,
      "Ġaband": 7571,
      "this": 7572,
      "Ġintense": 7573,
      "Ġchocolate": 7574,
      "Ġ37": 7575,
      "ollywood": 7576,
      "Ġcolumn": 7577,
      "jection": 7578,
      "Ġeverywhere": 7579,
      "ĠCentre": 7580,
      "Ġvent": 7581,
      "Ġcapabilities": 7582,
      "Ġokay": 7583,
      "Ġfishing": 7584,
      "Int": 7585,
      "Ġpersonality": 7586,
      "isted": 7587,
      "Ġstored": 7588,
      "osc": 7589,
      "Ġdad": 7590,
      "Ġentitled": 7591,
      "ĠSouthern": 7592,
      "oices": 7593,
      "Ġrose": 7594,
      "Ġdownt": 7595,
      "Ġbridge": 7596,
      "Ġcategories": 7597,
      "Ġrequirement": 7598,
      "elly": 7599,
      "Ġinterior": 7600,
      "Ġ33": 7601,
      "redit": 7602,
      "Ġdust": 7603,
      "ĠMP": 7604,
      "Ã¼": 7605,
      "Ġ38": 7606,
      "lv": 7607,
      "Ġtwe": 7608,
      "Ġbab": 7609,
      "isd": 7610,
      "Ġsplit": 7611,
      "ĠJac": 7612,
      "Ġbrill": 7613,
      "Ġpoker": 7614,
      "roduct": 7615,
      "ixture": 7616,
      "Ġsubstantial": 7617,
      "Ġcompliance": 7618,
      "iot": 7619,
      "Ġversions": 7620,
      "Ġattractive": 7621,
      "Ġdeeper": 7622,
      "ĠOlymp": 7623,
      "gor": 7624,
      "ĠCook": 7625,
      "ĠRoyal": 7626,
      "ĠAC": 7627,
      "zed": 7628,
      "iah": 7629,
      "ĠNight": 7630,
      "Ġmood": 7631,
      "imize": 7632,
      "Ġtomorrow": 7633,
      "ĠCast": 7634,
      "endar": 7635,
      "Up": 7636,
      "urable": 7637,
      "ĠUk": 7638,
      "Ġdemands": 7639,
      "Ġadopted": 7640,
      "Ġindicate": 7641,
      "ĠLeg": 7642,
      "Ġequally": 7643,
      "ĠTour": 7644,
      "ĠSaf": 7645,
      "Ġultimate": 7646,
      "Ġenemy": 7647,
      "Ġ*||": 7648,
      "Ġtag": 7649,
      "Ġ2022": 7650,
      "Ġdepression": 7651,
      "ieties": 7652,
      "Ġobserv": 7653,
      "Ġexclusive": 7654,
      "ĠNig": 7655,
      "Ġasks": 7656,
      "orable": 7657,
      "Ġsuffer": 7658,
      "AA": 7659,
      "opp": 7660,
      "alty": 7661,
      "lyn": 7662,
      "iano": 7663,
      "Ġdreams": 7664,
      "Ġcompare": 7665,
      "Ġscheduled": 7666,
      "Ġcriteria": 7667,
      "Per": 7668,
      "ĠWrit": 7669,
      "Ġtourn": 7670,
      "Ġmoist": 7671,
      "uct": 7672,
      "anes": 7673,
      "bre": 7674,
      "ĠMult": 7675,
      "Before": 7676,
      "Ġdestination": 7677,
      "Ġobjective": 7678,
      "Ġtickets": 7679,
      "Ġstom": 7680,
      "Ġthinks": 7681,
      "Ġbehalf": 7682,
      "Ġmolec": 7683,
      "isdom": 7684,
      "Ġcontinuing": 7685,
      "American": 7686,
      "Ġphenomen": 7687,
      "Ġreplacement": 7688,
      "Ġsought": 7689,
      "izer": 7690,
      "Ġrecover": 7691,
      "Ġgolf": 7692,
      "iac": 7693,
      "ĠItaly": 7694,
      "war": 7695,
      "Ġflag": 7696,
      "Ġgenerated": 7697,
      "Ġassociation": 7698,
      "ĠLi": 7699,
      "rently": 7700,
      "ĠNote": 7701,
      "ĠAp": 7702,
      "ĠHa": 7703,
      "Ġlucky": 7704,
      "Ġscheme": 7705,
      "ĠMid": 7706,
      "Ġprovision": 7707,
      "ĠTri": 7708,
      "aylor": 7709,
      "Ġremoval": 7710,
      "ĠSpring": 7711,
      "being": 7712,
      "ortion": 7713,
      "ĠProfessor": 7714,
      "Ġenforcement": 7715,
      "OV": 7716,
      "ĠIreland": 7717,
      "Ġ150": 7718,
      "Ġforgot": 7719,
      "Ġflash": 7720,
      "Ġgap": 7721,
      "Ġmortgage": 7722,
      "Ġmanagers": 7723,
      "Ġpriority": 7724,
      "quality": 7725,
      "Ġthread": 7726,
      "ĠFort": 7727,
      "Ġdelicious": 7728,
      "Ġmob": 7729,
      "zer": 7730,
      "Ġopposed": 7731,
      "ESS": 7732,
      "Ġrapidly": 7733,
      "Ġmac": 7734,
      "Ġunex": 7735,
      "Ġ?": 7736,
      "Tube": 7737,
      "Ġlau": 7738,
      "Ġfaced": 7739,
      "Ġcable": 7740,
      "Ġclothing": 7741,
      "Ñģ": 7742,
      "Ġpermission": 7743,
      "Ġcontaining": 7744,
      "ificate": 7745,
      "Ġgene": 7746,
      "Ġinitially": 7747,
      "Ġattended": 7748,
      "Ġbroadcast": 7749,
      "Ġcrack": 7750,
      "ĠHotel": 7751,
      "urb": 7752,
      "profit": 7753,
      "Ġoutstanding": 7754,
      "Ġvisible": 7755,
      "ĠUlt": 7756,
      "Ġmg": 7757,
      "ĠDie": 7758,
      "Ġimper": 7759,
      "Ġrating": 7760,
      "Ġrely": 7761,
      "ĠPacific": 7762,
      "Ġtired": 7763,
      "Ġdrag": 7764,
      "Ġdrawing": 7765,
      "ucky": 7766,
      "ikes": 7767,
      "Ġdivision": 7768,
      "Ġemotions": 7769,
      "ĠLow": 7770,
      "Ġbreaking": 7771,
      "ĠThree": 7772,
      "ults": 7773,
      "page": 7774,
      "ĠPract": 7775,
      "ĠStill": 7776,
      "ĠDaniel": 7777,
      "Ġmarked": 7778,
      "ĠStan": 7779,
      "Ġvessel": 7780,
      "htt": 7781,
      "Ġdiabetes": 7782,
      "Ġgotten": 7783,
      "ĠBritain": 7784,
      "df": 7785,
      "Ġtransaction": 7786,
      "Ġputs": 7787,
      "Ġlady": 7788,
      "Ġdevelopers": 7789,
      "Ġqualified": 7790,
      "Ġliability": 7791,
      "Ġpublication": 7792,
      "Ġstrongly": 7793,
      "CD": 7794,
      "inson": 7795,
      "ĠAsian": 7796,
      "Ġscenes": 7797,
      "Ġinvited": 7798,
      "anny": 7799,
      "Ġmanif": 7800,
      "Ġhung": 7801,
      "Ġneighb": 7802,
      "Ġraw": 7803,
      "Ġcouncil": 7804,
      "ĠKn": 7805,
      "Ġevaluation": 7806,
      "ĠDownload": 7807,
      "ĠPoint": 7808,
      "Ġindicated": 7809,
      "ĠPhot": 7810,
      "Che": 7811,
      "Ġgovernments": 7812,
      "Ġdismiss": 7813,
      "Ġhosting": 7814,
      "ĠCoast": 7815,
      "ĠMic": 7816,
      "Ġsamples": 7817,
      "Ġ39": 7818,
      "Ġflowers": 7819,
      "Ġpreparation": 7820,
      "Ġmemories": 7821,
      "Ġcontrovers": 7822,
      "eters": 7823,
      "Ġarchitecture": 7824,
      "Ġmistake": 7825,
      "arks": 7826,
      "Ġ1996": 7827,
      "ogs": 7828,
      "ĠKim": 7829,
      "ĠAdam": 7830,
      "ĠExpl": 7831,
      "Ġcuts": 7832,
      "Ġattempts": 7833,
      "Ġfitness": 7834,
      "Ġprinciple": 7835,
      "ĠWH": 7836,
      "ĠJews": 7837,
      "About": 7838,
      "Ġflexible": 7839,
      "ĠLtd": 7840,
      "Ġshoulder": 7841,
      "Ġcourts": 7842,
      "Ġmeals": 7843,
      "Ġtub": 7844,
      "Ġindustries": 7845,
      "Ġadj": 7846,
      "Ġbetting": 7847,
      "ĠSEO": 7848,
      "Ġwrites": 7849,
      "Ġcann": 7850,
      "Ġsubmitted": 7851,
      "Ġsuspect": 7852,
      "ĠGirl": 7853,
      "roduction": 7854,
      "Ġupl": 7855,
      "Ġelectrical": 7856,
      "64": 7857,
      "Ġcircuit": 7858,
      "ensus": 7859,
      "Ġ1980": 7860,
      "Ġexhaust": 7861,
      "Ġairport": 7862,
      "Ġ55": 7863,
      "Ġsentence": 7864,
      "ĠLin": 7865,
      "Ġ34": 7866,
      "ĠBa": 7867,
      "obby": 7868,
      "oured": 7869,
      "69": 7870,
      "ĠClin": 7871,
      "Ġantib": 7872,
      "Ġacceler": 7873,
      "ĠPerhaps": 7874,
      "ĠHenry": 7875,
      "ĠExecutive": 7876,
      "itals": 7877,
      "Ġbunch": 7878,
      "ĠiP": 7879,
      "osm": 7880,
      "Ġattitude": 7881,
      "ĠTable": 7882,
      "Ġexists": 7883,
      "Ġheaded": 7884,
      "Press": 7885,
      "Ġinteraction": 7886,
      "ĠArticle": 7887,
      "Ġstable": 7888,
      "ĠDivision": 7889,
      "Ġplane": 7890,
      "Ġmanufacturers": 7891,
      "Ġsoph": 7892,
      "Rec": 7893,
      "Ġpresents": 7894,
      "Ġexpansion": 7895,
      "uma": 7896,
      "Ġsurve": 7897,
      "Ġopposition": 7898,
      "Ġcolleagues": 7899,
      "ĠStudies": 7900,
      "Because": 7901,
      "Ġretirement": 7902,
      "Ġscope": 7903,
      "Ġ)": 7904,
      "Ġfounded": 7905,
      "ĠAccount": 7906,
      "Ġfinger": 7907,
      "Ġhadn": 7908,
      "Ġmerch": 7909,
      "Ġticket": 7910,
      "Ġsections": 7911,
      "Ġchronic": 7912,
      "ĠPalest": 7913,
      "Ġweekly": 7914,
      "ĠSanta": 7915,
      "ĠCR": 7916,
      "Ġpermit": 7917,
      "Ġ65": 7918,
      "Ġhopes": 7919,
      "Ġlapt": 7920,
      "mal": 7921,
      "Ġsuperior": 7922,
      "icide": 7923,
      "Ġcalm": 7924,
      "........": 7925,
      "Ġpul": 7926,
      "char": 7927,
      "ĠBuy": 7928,
      "Ġalter": 7929,
      "Ġtracks": 7930,
      "Ġfunctional": 7931,
      "ĠSports": 7932,
      ",'": 7933,
      "Ġje": 7934,
      "Ġadvantages": 7935,
      "87": 7936,
      "words": 7937,
      "stery": 7938,
      "Ġemployer": 7939,
      "berry": 7940,
      "ĠKar": 7941,
      "Ġbatt": 7942,
      "Ġsaving": 7943,
      "Ġgate": 7944,
      "iece": 7945,
      "Ġtreatments": 7946,
      "Ġelected": 7947,
      "ĠSS": 7948,
      "ĠPsych": 7949,
      "ĠWithout": 7950,
      "ĠDespite": 7951,
      "Ġphotograp": 7952,
      "Ġratio": 7953,
      "stra": 7954,
      "Ġeligible": 7955,
      "Ġstages": 7956,
      "ĠPrem": 7957,
      "foot": 7958,
      "ormal": 7959,
      "Ġsizes": 7960,
      "Ġinsight": 7961,
      "arry": 7962,
      "Ġprotocol": 7963,
      "Ġbathroom": 7964,
      "ĠFinancial": 7965,
      "Ġ1995": 7966,
      "ĠViet": 7967,
      "Ġsecondary": 7968,
      "claim": 7969,
      "Ġending": 7970,
      "Ġmaintaining": 7971,
      "Ġrespectively": 7972,
      "ĠFestival": 7973,
      "ĠRay": 7974,
      "Ġusage": 7975,
      "ĠForce": 7976,
      "Ġgiant": 7977,
      "Ġconcepts": 7978,
      "Ġkiss": 7979,
      "Ġ400": 7980,
      "Ġresc": 7981,
      "ĠHaving": 7982,
      "made": 7983,
      "Ġsomebody": 7984,
      "ĠGreek": 7985,
      "icious": 7986,
      "Ġscored": 7987,
      "Ġinstant": 7988,
      "Ġintellectual": 7989,
      "Ġrepresented": 7990,
      "aping": 7991,
      "Ġstayed": 7992,
      "anwhile": 7993,
      "ĠColorado": 7994,
      "ĠPut": 7995,
      "Ġlets": 7996,
      "Ġmedication": 7997,
      "Ġarrive": 7998,
      "Ġbone": 7999,
      "Ġsomehow": 8000,
      "Ð½": 8001,
      "Ġhel": 8002,
      "Ġbomb": 8003,
      "ĠRam": 8004,
      "igation": 8005,
      "Ġrequests": 8006,
      "Ġelectricity": 8007,
      "Ġgrace": 8008,
      "nce": 8009,
      "Ġtitles": 8010,
      "Ġopinions": 8011,
      "friendly": 8012,
      "ĠCivil": 8013,
      "cover": 8014,
      "pending": 8015,
      "oked": 8016,
      "EA": 8017,
      "Ġtestim": 8018,
      "DP": 8019,
      "bered": 8020,
      "Ġkilling": 8021,
      "300": 8022,
      "Ġmanufacturer": 8023,
      "ĠOl": 8024,
      "Ġpubl": 8025,
      "was": 8026,
      "ĠHarry": 8027,
      "aded": 8028,
      "Ġbutt": 8029,
      "ĠRoman": 8030,
      "Ġpregnancy": 8031,
      "ĠBrook": 8032,
      "ĠSky": 8033,
      "ĠMarketing": 8034,
      "istant": 8035,
      "Ġappointment": 8036,
      "inch": 8037,
      "EG": 8038,
      "ĠSn": 8039,
      "Ġsoldiers": 8040,
      "Ġcake": 8041,
      "ava": 8042,
      "ĠSher": 8043,
      "izz": 8044,
      "zona": 8045,
      "ĠContin": 8046,
      "Ġdanger": 8047,
      "Ġgifts": 8048,
      "ĠInstagram": 8049,
      "ĠRon": 8050,
      "Ġstaying": 8051,
      "ĠUnfortunately": 8052,
      "ĠMedicine": 8053,
      "uan": 8054,
      "Ġcompensation": 8055,
      "Ġgreatly": 8056,
      "Ġpleased": 8057,
      "Ġwins": 8058,
      "Ġextension": 8059,
      "Ġclock": 8060,
      "67": 8061,
      "Ġrelation": 8062,
      "Ġwra": 8063,
      "ĠAsh": 8064,
      "Ġfalls": 8065,
      "Ġther": 8066,
      "ĠSat": 8067,
      "Ã³": 8068,
      "Ġhandling": 8069,
      "bell": 8070,
      "eling": 8071,
      "Ġcerem": 8072,
      "ĠPriv": 8073,
      "Look": 8074,
      "Ġfewer": 8075,
      "ealand": 8076,
      "Ġconstit": 8077,
      "Ġflying": 8078,
      "ĠCho": 8079,
      "Ġfrequency": 8080,
      "Ġconsists": 8081,
      "Ġdivor": 8082,
      "Ġloyal": 8083,
      "abeth": 8084,
      "Ġvacation": 8085,
      "Ġcombat": 8086,
      "Ġremem": 8087,
      "ampion": 8088,
      "Ġdining": 8089,
      "Ġflour": 8090,
      "Ġlists": 8091,
      "Ġhistoric": 8092,
      "Ġma": 8093,
      "68": 8094,
      "aine": 8095,
      "ĠHelp": 8096,
      "ennis": 8097,
      "ĠShould": 8098,
      "Ġtonight": 8099,
      "Ġbirds": 8100,
      "Ġgained": 8101,
      "Ġaccordance": 8102,
      "Ġunknown": 8103,
      "Ġpushed": 8104,
      "Ġinhib": 8105,
      "Ġemails": 8106,
      "iffe": 8107,
      "FC": 8108,
      "ĠWebsite": 8109,
      "Ġinstitution": 8110,
      "%)": 8111,
      "ĠDark": 8112,
      "Ġalongside": 8113,
      "Ġpandemic": 8114,
      "Ġlect": 8115,
      "ĠFinally": 8116,
      "Ġeggs": 8117,
      "Ġsuffered": 8118,
      "atics": 8119,
      "Ġequivalent": 8120,
      "Ġmini": 8121,
      "Ġquote": 8122,
      "ificial": 8123,
      "star": 8124,
      "usive": 8125,
      "Fr": 8126,
      "ĠRyan": 8127,
      "ĠBit": 8128,
      "ĠPolice": 8129,
      "adel": 8130,
      "Ġmile": 8131,
      "ĠJr": 8132,
      "athan": 8133,
      "ailable": 8134,
      "ĠOk": 8135,
      "nell": 8136,
      "Ġsurvive": 8137,
      "thew": 8138,
      "Ġimmune": 8139,
      "ĠGames": 8140,
      "Today": 8141,
      "onic": 8142,
      "iti": 8143,
      "Ġprayer": 8144,
      "Ġemployed": 8145,
      "je": 8146,
      "irus": 8147,
      "ĠBrazil": 8148,
      "Ġfrustr": 8149,
      "GE": 8150,
      "Ġenables": 8151,
      "Ġblank": 8152,
      "Ġ(âĢľ": 8153,
      "rec": 8154,
      "Ġnerv": 8155,
      "Ġperiods": 8156,
      "eras": 8157,
      "Ġparticipation": 8158,
      "ĠCP": 8159,
      "Ġcoc": 8160,
      "ulum": 8161,
      "ĠCase": 8162,
      "ĠYouTube": 8163,
      "Ġproport": 8164,
      "Ġseats": 8165,
      "ĠLabor": 8166,
      "Ġdollar": 8167,
      "Ġham": 8168,
      "ĠDisc": 8169,
      "ĠSir": 8170,
      "ĠAdditionally": 8171,
      "ĠFred": 8172,
      "Ġboss": 8173,
      "hesis": 8174,
      "ĠIII": 8175,
      "looking": 8176,
      "lastname": 8177,
      "ials": 8178,
      "ĠSH": 8179,
      "gel": 8180,
      "istent": 8181,
      "Ġinvestments": 8182,
      "after": 8183,
      "who": 8184,
      "Ġminds": 8185,
      "Ġblocks": 8186,
      "Ġlesson": 8187,
      "ĠAdministration": 8188,
      "ĠPo": 8189,
      "Ġtill": 8190,
      "bro": 8191,
      "bridge": 8192,
      "Ġought": 8193,
      "function": 8194,
      "Ġprivile": 8195,
      "ĠTreat": 8196,
      "ĠTry": 8197,
      "Ġportfolio": 8198,
      "Ġnewly": 8199,
      "ĠTer": 8200,
      "Ġwake": 8201,
      "Ġtoler": 8202,
      "Ġwanting": 8203,
      "Ġhorm": 8204,
      "ĠFact": 8205,
      "ĠOS": 8206,
      "ĠRose": 8207,
      "Ġprogramme": 8208,
      "Like": 8209,
      "ped": 8210,
      "Ġtherap": 8211,
      "Ġinstruction": 8212,
      "Ġcoordin": 8213,
      "Ġstyles": 8214,
      "Ġencouraged": 8215,
      "Sec": 8216,
      "dis": 8217,
      "ĠPersonal": 8218,
      "case": 8219,
      "ĠVideo": 8220,
      "cribed": 8221,
      "Ġwise": 8222,
      "Ġresponses": 8223,
      "Ġadmit": 8224,
      "nders": 8225,
      "Ġcenters": 8226,
      "Ġmarks": 8227,
      "Ġensuring": 8228,
      "ĠJersey": 8229,
      "ĠSearch": 8230,
      "eness": 8231,
      "Ġoffices": 8232,
      "Ġphilosophy": 8233,
      "rets": 8234,
      "Ġdescribes": 8235,
      "Ġstretch": 8236,
      "missions": 8237,
      "ĠDemocratic": 8238,
      "uter": 8239,
      "erman": 8240,
      "Ġloose": 8241,
      "Ġuniverse": 8242,
      "Ġinspiration": 8243,
      "orous": 8244,
      "fall": 8245,
      "Ġworried": 8246,
      "Ġdumpster": 8247,
      "Ġseasons": 8248,
      "!!!": 8249,
      "formance": 8250,
      "ĠCert": 8251,
      "Ġbars": 8252,
      "ĠSystems": 8253,
      "ĠPlace": 8254,
      "ĠZealand": 8255,
      "Ġreaching": 8256,
      "Ġregulation": 8257,
      "Ġdiversity": 8258,
      "yd": 8259,
      "Ġpersonnel": 8260,
      "Book": 8261,
      "sis": 8262,
      "ĠSea": 8263,
      "ĠGeorgia": 8264,
      "Ġrural": 8265,
      "Ġentering": 8266,
      "Ġplain": 8267,
      "Ġapplying": 8268,
      "Ġmetab": 8269,
      "organ": 8270,
      "Ġlighting": 8271,
      "Ġsorry": 8272,
      "amps": 8273,
      "sts": 8274,
      "Ġbench": 8275,
      "Ġerrors": 8276,
      "ĠCond": 8277,
      "Ġfingers": 8278,
      "boy": 8279,
      "Ġcovering": 8280,
      "Ġfib": 8281,
      "ĠTurn": 8282,
      "His": 8283,
      "Ġbeneficial": 8284,
      "ĠSav": 8285,
      "upid": 8286,
      "Ġchildhood": 8287,
      "swered": 8288,
      "Ġvoters": 8289,
      "ifting": 8290,
      "Ġlosses": 8291,
      "Ġfavourite": 8292,
      "ĠKingdom": 8293,
      "Ġcomprom": 8294,
      "Ġwarning": 8295,
      "Ġspots": 8296,
      "Ġcontracts": 8297,
      "Ġsingles": 8298,
      "Ġconventional": 8299,
      "eping": 8300,
      "MC": 8301,
      "Ġheavily": 8302,
      "ethe": 8303,
      "udes": 8304,
      "Ġimmun": 8305,
      "Ġfarmers": 8306,
      "low": 8307,
      "rine": 8308,
      "Ġdecline": 8309,
      "Ġho": 8310,
      "ourse": 8311,
      "Ġmit": 8312,
      "Ġinfect": 8313,
      "rison": 8314,
      "Ġrarely": 8315,
      "ĠAI": 8316,
      "Ġclosing": 8317,
      "wart": 8318,
      "Ġrepresentative": 8319,
      "ao": 8320,
      "Ġjurisd": 8321,
      "Ġupcoming": 8322,
      "Ġtracking": 8323,
      "%,": 8324,
      "Ġengaging": 8325,
      "Ġstudied": 8326,
      "Ġmatches": 8327,
      "Ġreturning": 8328,
      "agraph": 8329,
      "run": 8330,
      "ĠRef": 8331,
      "Ġbags": 8332,
      "Ġocean": 8333,
      "Ġemotion": 8334,
      "ĠFriend": 8335,
      "Ġversus": 8336,
      "Ġdefine": 8337,
      "Ġacknowled": 8338,
      "Ġminister": 8339,
      "Ġintegration": 8340,
      "Ġbills": 8341,
      "ĠIslam": 8342,
      "Ġaircraft": 8343,
      "Ġprogramming": 8344,
      "Ġorient": 8345,
      "ĠSus": 8346,
      "iary": 8347,
      ")||": 8348,
      "Ġske": 8349,
      "Ġpig": 8350,
      "ĠSU": 8351,
      "Ġreveal": 8352,
      "Co": 8353,
      "isa": 8354,
      "Ġpowder": 8355,
      "ĠHeart": 8356,
      "ilty": 8357,
      "ĠBeing": 8358,
      "Ġminimal": 8359,
      "ĠIrish": 8360,
      "ĠField": 8361,
      "57": 8362,
      "Ġcasual": 8363,
      "Ġmig": 8364,
      "Ġproved": 8365,
      "vation": 8366,
      "Ġneut": 8367,
      "ĠMA": 8368,
      "ĠBudd": 8369,
      "Ġdesper": 8370,
      "Ġmature": 8371,
      "Ġflavor": 8372,
      "brid": 8373,
      "ĠEst": 8374,
      "ĠTax": 8375,
      "Ġtransactions": 8376,
      "58": 8377,
      "Ġargue": 8378,
      "ĠCub": 8379,
      "ĠSteel": 8380,
      "Ġdemonstrate": 8381,
      "ĠPrime": 8382,
      "iler": 8383,
      "Ġsauce": 8384,
      "ĠHIV": 8385,
      "Ġsegment": 8386,
      "TR": 8387,
      "oding": 8388,
      "ĠDam": 8389,
      "ouch": 8390,
      "iking": 8391,
      "phones": 8392,
      "Ġcasinos": 8393,
      "oup": 8394,
      "Ġsubsequent": 8395,
      "Ġtransmission": 8396,
      "Ġdifficulty": 8397,
      "Ġcelebrate": 8398,
      "ĠMir": 8399,
      "Ġclassroom": 8400,
      "arat": 8401,
      "Ġtrave": 8402,
      "Ġencounter": 8403,
      "ĠRod": 8404,
      "everal": 8405,
      "Ġanswered": 8406,
      "SE": 8407,
      "ila": 8408,
      "ĠNorthern": 8409,
      "Ġ42": 8410,
      "52": 8411,
      "Ġmuscles": 8412,
      "Inst": 8413,
      "atoes": 8414,
      "Ġhide": 8415,
      "Ġtort": 8416,
      "Ġbuff": 8417,
      "enny": 8418,
      "Will": 8419,
      "odge": 8420,
      "Ġnewspaper": 8421,
      "VER": 8422,
      "Ġmistakes": 8423,
      "ĠCN": 8424,
      "Ġtrem": 8425,
      "Ġstomach": 8426,
      "Cons": 8427,
      "onto": 8428,
      "ĠCommon": 8429,
      "ĠKent": 8430,
      "Ġimprovements": 8431,
      "Ġluxury": 8432,
      "Col": 8433,
      "omething": 8434,
      "ĠFarm": 8435,
      "ĠLatin": 8436,
      "ja": 8437,
      "aska": 8438,
      "Ġmassage": 8439,
      "Ġtraveling": 8440,
      "Ġmining": 8441,
      "ĠMs": 8442,
      "Ġdistingu": 8443,
      "Ġacquis": 8444,
      "Ġunusual": 8445,
      "ĠDO": 8446,
      "Ġrestrictions": 8447,
      "Ġloving": 8448,
      "Ġrequested": 8449,
      "inating": 8450,
      "Ġshops": 8451,
      "ffective": 8452,
      "ĠFord": 8453,
      "Ġsmoke": 8454,
      "Ġexplo": 8455,
      "ĠKorea": 8456,
      "Ġmechanism": 8457,
      "Ġcookies": 8458,
      "UD": 8459,
      "ĠCON": 8460,
      "Ġdeck": 8461,
      "ĠSC": 8462,
      "iors": 8463,
      "Ġavailability": 8464,
      "Ġperm": 8465,
      "ateful": 8466,
      "Ġyard": 8467,
      "izabeth": 8468,
      "print": 8469,
      "Ġformation": 8470,
      "Ġassigned": 8471,
      "ĠEnt": 8472,
      "Ġbowl": 8473,
      "power": 8474,
      "ĠProm": 8475,
      "Ġscores": 8476,
      "ĠQueen": 8477,
      "Ġmm": 8478,
      "Ġmeasured": 8479,
      "ĠClinton": 8480,
      "ĠMess": 8481,
      "Ġmovements": 8482,
      "ĠChristians": 8483,
      "gments": 8484,
      "Ġsummary": 8485,
      "Ġabsence": 8486,
      "gorith": 8487,
      "orted": 8488,
      "Ġstudying": 8489,
      "Ġfranch": 8490,
      "adium": 8491,
      "ĠContact": 8492,
      "Ġstruggling": 8493,
      "aron": 8494,
      "aret": 8495,
      "TM": 8496,
      "Ġprovisions": 8497,
      "ĠMoreover": 8498,
      "Bu": 8499,
      "ĠStudents": 8500,
      "Ġmaintained": 8501,
      "Ġshower": 8502,
      "ĠEth": 8503,
      "Ġfifth": 8504,
      "ĠCe": 8505,
      "orses": 8506,
      "liers": 8507,
      "Ġ49": 8508,
      "Ġtemporary": 8509,
      "Ġfocusing": 8510,
      "Ġque": 8511,
      "Ġregulatory": 8512,
      "ATE": 8513,
      "ruits": 8514,
      "ali": 8515,
      "Ġpurchasing": 8516,
      "ĠOp": 8517,
      "Ġinitiative": 8518,
      ",âĢĻ": 8519,
      "ĠSpace": 8520,
      "ilipp": 8521,
      "Ġsup": 8522,
      "Ġvice": 8523,
      "inois": 8524,
      "Ġaddressed": 8525,
      "ĠStudy": 8526,
      "Ġdesigner": 8527,
      "Ġcompat": 8528,
      "Ġdil": 8529,
      "owed": 8530,
      "Ġdose": 8531,
      "Ġadmitted": 8532,
      "ĠEastern": 8533,
      "stal": 8534,
      "Ġwash": 8535,
      "season": 8536,
      "ĠFox": 8537,
      "Ġnarrative": 8538,
      "Ġoffense": 8539,
      "ĠBru": 8540,
      "Ġdisorder": 8541,
      "Ġsubsid": 8542,
      "encing": 8543,
      "urities": 8544,
      "Ġdecrease": 8545,
      "ĠMah": 8546,
      "ĠArizona": 8547,
      "ĠPop": 8548,
      "ĠBall": 8549,
      "through": 8550,
      "Ġdivided": 8551,
      "ĠDisney": 8552,
      "Ġforecast": 8553,
      "rape": 8554,
      "utors": 8555,
      "Ġwaters": 8556,
      "Ġraising": 8557,
      "Ġinsert": 8558,
      "Ġfeaturing": 8559,
      "Ġordinary": 8560,
      "Ġmyth": 8561,
      "charge": 8562,
      "Ġsequence": 8563,
      "Jan": 8564,
      "Ġcopyright": 8565,
      "icity": 8566,
      "irts": 8567,
      "sect": 8568,
      "alo": 8569,
      "Ġ1970": 8570,
      "ordan": 8571,
      "verty": 8572,
      "acher": 8573,
      "ĠAfghan": 8574,
      "Ġax": 8575,
      "ĠLew": 8576,
      "Ġye": 8577,
      "Ġcorrectly": 8578,
      "roller": 8579,
      "Ġassistant": 8580,
      "Ġcomputers": 8581,
      "ĠTaylor": 8582,
      "Ġbaseball": 8583,
      "Ġpreparing": 8584,
      "Ġstring": 8585,
      "there": 8586,
      "Ġphones": 8587,
      "Ġfluid": 8588,
      "Ġalign": 8589,
      "FA": 8590,
      "osa": 8591,
      "Ġterrible": 8592,
      "ĠSmall": 8593,
      "Ġspark": 8594,
      "Ġ1994": 8595,
      "Ġtargets": 8596,
      "53": 8597,
      "umer": 8598,
      "Ġroads": 8599,
      "Ġwisdom": 8600,
      "Ġweird": 8601,
      "ĠBox": 8602,
      "ĠTravel": 8603,
      "Ġacquired": 8604,
      "idays": 8605,
      "Ġwestern": 8606,
      "Ġsuggestions": 8607,
      "Ġgonna": 8608,
      "Ġdeploy": 8609,
      "ĠAgreement": 8610,
      "Ġpoverty": 8611,
      "Ġenjoying": 8612,
      "Ġcontribution": 8613,
      "Ġenorm": 8614,
      "ishment": 8615,
      "Ġblow": 8616,
      "Ġtelephone": 8617,
      "HA": 8618,
      "Ġnose": 8619,
      "Ġbedroom": 8620,
      "called": 8621,
      "Ġrecept": 8622,
      "world": 8623,
      "utter": 8624,
      "==": 8625,
      "Ġformula": 8626,
      "ador": 8627,
      "cend": 8628,
      "Ġelections": 8629,
      "Thank": 8630,
      "Ġovercome": 8631,
      "Ġles": 8632,
      "urse": 8633,
      "Ġexplanation": 8634,
      "Ġoral": 8635,
      "Ġvegetables": 8636,
      "rous": 8637,
      "athered": 8638,
      "Ġinsights": 8639,
      "ĠWorks": 8640,
      "Ġlens": 8641,
      "Ġseeds": 8642,
      "Ġsurvival": 8643,
      "ĠDemocrats": 8644,
      "Ġtargeted": 8645,
      "ĠTal": 8646,
      "Ġchecking": 8647,
      "Ġprincipal": 8648,
      "Ġtied": 8649,
      "ĠDub": 8650,
      "63": 8651,
      "Ġsubstance": 8652,
      "atell": 8653,
      "ĠCru": 8654,
      "Ġdemonstrated": 8655,
      "Ġstability": 8656,
      "Ġelsewhere": 8657,
      "ibl": 8658,
      "Ã¶": 8659,
      "Ġtape": 8660,
      "Ġsignals": 8661,
      "Ġrac": 8662,
      "Ġheading": 8663,
      "Part": 8664,
      "ĠGuard": 8665,
      "epend": 8666,
      "Ġlift": 8667,
      "Ġattach": 8668,
      "Ġresulted": 8669,
      "ipt": 8670,
      "pled": 8671,
      "Ġpeak": 8672,
      "Ġassault": 8673,
      "Ġownership": 8674,
      "ĠDaily": 8675,
      "ĠSpain": 8676,
      "Ġfestival": 8677,
      "ocated": 8678,
      "Ġhardly": 8679,
      "Ġmixture": 8680,
      "Ġcompe": 8681,
      "ĠKat": 8682,
      "Ġdivide": 8683,
      "ĠRemember": 8684,
      "Ġincent": 8685,
      "Ġinterviews": 8686,
      "ĠCapt": 8687,
      "pack": 8688,
      "they": 8689,
      "ashes": 8690,
      "Ġprime": 8691,
      "ĠLind": 8692,
      "Ġimplemented": 8693,
      "Ġdiagnosis": 8694,
      "ĠÂ·": 8695,
      "ĠVill": 8696,
      "Step": 8697,
      "step": 8698,
      "Ġnights": 8699,
      "Ġconcentration": 8700,
      "iry": 8701,
      "Ġdys": 8702,
      "Ġcrusher": 8703,
      "Ġcurrency": 8704,
      "ĠHollywood": 8705,
      "Ġinflamm": 8706,
      "flow": 8707,
      "abil": 8708,
      "Ġlanguages": 8709,
      "iki": 8710,
      "Ġwhereas": 8711,
      "emed": 8712,
      "Ġawarded": 8713,
      "ĠEric": 8714,
      "Ġnervous": 8715,
      "Ġbinary": 8716,
      "Ġmanip": 8717,
      "Ġresidential": 8718,
      "Ġrefused": 8719,
      "Ġconversations": 8720,
      "Ġabilities": 8721,
      "Ġdispl": 8722,
      "Ġhoriz": 8723,
      "Ġpregnant": 8724,
      "bury": 8725,
      "ĠRog": 8726,
      "Ġstatistics": 8727,
      "Ġrice": 8728,
      "olt": 8729,
      "AND": 8730,
      "'.": 8731,
      "Ġscream": 8732,
      "61": 8733,
      "ĠCarl": 8734,
      "800": 8735,
      "ĠBrad": 8736,
      "Ġexamine": 8737,
      "ultane": 8738,
      "xual": 8739,
      "Ġappointed": 8740,
      "Ġsatisfied": 8741,
      "Ġboxes": 8742,
      "Ġrefund": 8743,
      "Ġspeaker": 8744,
      "Ġlip": 8745,
      "tical": 8746,
      "letter": 8747,
      "Sm": 8748,
      "omatic": 8749,
      "ĠRen": 8750,
      "month": 8751,
      "vard": 8752,
      "ospel": 8753,
      "Ġfirstname": 8754,
      "ouston": 8755,
      "Ġasset": 8756,
      "Ġmild": 8757,
      "Gu": 8758,
      "icking": 8759,
      "Ġouts": 8760,
      "Ġterr": 8761,
      "Ġneuro": 8762,
      "Ġdrinks": 8763,
      "ĠDavis": 8764,
      "Ġdeclared": 8765,
      "Ġjun": 8766,
      "raine": 8767,
      "Ġaccuracy": 8768,
      "ĠðŁ": 8769,
      "gical": 8770,
      "Ġcogn": 8771,
      "Ġsed": 8772,
      "Ġox": 8773,
      "Ġflexibility": 8774,
      "Ġspir": 8775,
      "ĠVi": 8776,
      "Ġgym": 8777,
      "Ġarray": 8778,
      "Ġoffensive": 8779,
      "Ġlifetime": 8780,
      "Ġunexpected": 8781,
      "agan": 8782,
      "apore": 8783,
      "54": 8784,
      "Ġmanifest": 8785,
      "elle": 8786,
      "sem": 8787,
      "ĠInsurance": 8788,
      "Ġcontributions": 8789,
      "ĠWas": 8790,
      "itative": 8791,
      "ĠBern": 8792,
      "sen": 8793,
      "Ġexamination": 8794,
      "Ġriding": 8795,
      "Ġhearts": 8796,
      "imental": 8797,
      "Ġcha": 8798,
      "regon": 8799,
      "vas": 8800,
      "ĠBang": 8801,
      "ĠÂ§": 8802,
      "Ġtrigger": 8803,
      "Ġinvesting": 8804,
      "Ġthy": 8805,
      "roat": 8806,
      "viously": 8807,
      "rite": 8808,
      "Ġvirtually": 8809,
      "Best": 8810,
      "Ġuniform": 8811,
      "Ġbes": 8812,
      "iami": 8813,
      "Ġfiction": 8814,
      "Ġimportantly": 8815,
      "Ġhosp": 8816,
      "ĠAgency": 8817,
      "Ġassert": 8818,
      "mod": 8819,
      "ĠRoll": 8820,
      "Ġtrials": 8821,
      "Ġmad": 8822,
      "Ġstunning": 8823,
      "Ġdenied": 8824,
      "Google": 8825,
      "iversary": 8826,
      "Ke": 8827,
      "ifted": 8828,
      "Ġsatisfaction": 8829,
      "Ġinjured": 8830,
      "Ġmeets": 8831,
      "Ġstruck": 8832,
      "Ġdisag": 8833,
      "jo": 8834,
      "pany": 8835,
      "ĠMD": 8836,
      "Ġrefuge": 8837,
      "Ġutilize": 8838,
      "Ġdiscussions": 8839,
      "angers": 8840,
      "ĠBroad": 8841,
      "ĠProcess": 8842,
      "Ġpocket": 8843,
      "Ġvisits": 8844,
      "Ġjew": 8845,
      "SC": 8846,
      "Ġvoc": 8847,
      "Ġrefers": 8848,
      "Ġpromoting": 8849,
      "Ġvert": 8850,
      "pson": 8851,
      "Ġjoining": 8852,
      "Ġbuck": 8853,
      "Ġjuice": 8854,
      "Ġtap": 8855,
      "ĠTraining": 8856,
      "ĠHas": 8857,
      "Pr": 8858,
      "ilton": 8859,
      "Ġimmig": 8860,
      "annel": 8861,
      "Ġprinted": 8862,
      "Â·": 8863,
      "Ġcircle": 8864,
      "Ġviagra": 8865,
      "REE": 8866,
      "ĠPolit": 8867,
      "Sim": 8868,
      "Ġswing": 8869,
      "Ġpushing": 8870,
      "mo": 8871,
      "ĠFurthermore": 8872,
      "Ġprescription": 8873,
      "Ġimpression": 8874,
      "Ġcow": 8875,
      "Ġfur": 8876,
      "olis": 8877,
      "TV": 8878,
      "Ġcomplaint": 8879,
      "Ġsouthern": 8880,
      "wan": 8881,
      "Ġbuyers": 8882,
      "Ġsurely": 8883,
      "rett": 8884,
      "ĠCloud": 8885,
      "gener": 8886,
      "ĠNFL": 8887,
      "olid": 8888,
      "Ġsurge": 8889,
      "Ġcampaigns": 8890,
      "Ġsolely": 8891,
      "Ġaccum": 8892,
      "Ġintervention": 8893,
      "Ġdestroyed": 8894,
      "awa": 8895,
      "Ġbrothers": 8896,
      "Ġemerging": 8897,
      "ĠBad": 8898,
      "ĠSoftware": 8899,
      "ĠBuilding": 8900,
      "Ġparalle": 8901,
      "oric": 8902,
      "Ġangry": 8903,
      "Ġconsistently": 8904,
      "ILL": 8905,
      "ĠOx": 8906,
      "izza": 8907,
      "Ġpricing": 8908,
      "Ġinev": 8909,
      "inks": 8910,
      "ĠMother": 8911,
      "ĠLine": 8912,
      "Ġshell": 8913,
      "Ġletting": 8914,
      "ĠMiller": 8915,
      "97": 8916,
      "Ġtube": 8917,
      "ĠOK": 8918,
      "ĠAction": 8919,
      "Ġrepeat": 8920,
      "ds": 8921,
      "Ġvulnerable": 8922,
      "elcome": 8923,
      "ĠLocal": 8924,
      "View": 8925,
      "weet": 8926,
      "Pub": 8927,
      "aval": 8928,
      "Ġhes": 8929,
      "ĠLearn": 8930,
      "Ġmic": 8931,
      "Ġcertified": 8932,
      "ĠRand": 8933,
      "ĠCab": 8934,
      "vals": 8935,
      "Ġcodes": 8936,
      "Oct": 8937,
      "ools": 8938,
      "Ð¾Ð": 8939,
      "Ġbeliefs": 8940,
      "uating": 8941,
      "obb": 8942,
      "Ã¤": 8943,
      "Ġgenetic": 8944,
      "heast": 8945,
      "ART": 8946,
      "Ġcameras": 8947,
      "Ġthemes": 8948,
      "Ġrecall": 8949,
      "Ġuncom": 8950,
      "Ġbranch": 8951,
      "mates": 8952,
      "ĠArea": 8953,
      "OK": 8954,
      "Ġapplies": 8955,
      "ĠTele": 8956,
      "ĠConnect": 8957,
      "Ġestimate": 8958,
      "cho": 8959,
      "Ġdistributed": 8960,
      "ĠMountain": 8961,
      "Ġhaz": 8962,
      "400": 8963,
      "Ġwondering": 8964,
      "stract": 8965,
      "imp": 8966,
      "ĠWilson": 8967,
      "UM": 8968,
      "Ġworship": 8969,
      "Ġpassage": 8970,
      "Ġconservative": 8971,
      "Ġalgorith": 8972,
      "Ġstations": 8973,
      "Ġgrounds": 8974,
      "Ġsettlement": 8975,
      "gged": 8976,
      "Fi": 8977,
      "Ġaddresses": 8978,
      "ĠPakistan": 8979,
      "Ġbarely": 8980,
      "Ġroots": 8981,
      "makers": 8982,
      "ership": 8983,
      "Ġemployers": 8984,
      "Ġequity": 8985,
      "Ġsleeping": 8986,
      "Ġregime": 8987,
      "Ġdamaged": 8988,
      "fections": 8989,
      "aka": 8990,
      "Ġbands": 8991,
      "Ġawards": 8992,
      "PM": 8993,
      "books": 8994,
      "Ġappet": 8995,
      "elve": 8996,
      "ĠCustomer": 8997,
      "BM": 8998,
      "ĠHell": 8999,
      "burgh": 9000,
      ".-": 9001,
      "Ġburning": 9002,
      "Ġguilty": 9003,
      "Ġbrilliant": 9004,
      "ĠRa": 9005,
      "Ġaccused": 9006,
      "Ġmattress": 9007,
      "ĠDVD": 9008,
      "Ġindicates": 9009,
      "Ġnutri": 9010,
      "ĠVery": 9011,
      ")(": 9012,
      "Ġtie": 9013,
      "Ġeleg": 9014,
      "Ġdefendant": 9015,
      "Ġrelating": 9016,
      "vironments": 9017,
      "unicip": 9018,
      "ascular": 9019,
      "People": 9020,
      "tery": 9021,
      "Ġtons": 9022,
      "Ġintroduce": 9023,
      "ifer": 9024,
      "onymous": 9025,
      "Ġpursue": 9026,
      "phia": 9027,
      "Ġlegend": 9028,
      "Ġtroops": 9029,
      "Ġly": 9030,
      "Ġunderlying": 9031,
      "Ġnobody": 9032,
      "Ġbehaviour": 9033,
      "Ġpasses": 9034,
      "Ġfault": 9035,
      "iatric": 9036,
      "Ġexplos": 9037,
      "criptions": 9038,
      "Ġdiscovery": 9039,
      "kel": 9040,
      "Ġoven": 9041,
      "Ġadvent": 9042,
      "62": 9043,
      "ricted": 9044,
      "Ġtoxic": 9045,
      "Ġconcert": 9046,
      "Ġevaluate": 9047,
      "Car": 9048,
      "otton": 9049,
      "iscal": 9050,
      "Ġsettled": 9051,
      "ordinary": 9052,
      "ĠWeight": 9053,
      "Ġproductivity": 9054,
      "Ġtrips": 9055,
      "bow": 9056,
      "Ġelectron": 9057,
      "Ġterritory": 9058,
      "Ġentrance": 9059,
      "alog": 9060,
      "Ġphotography": 9061,
      "ĠLA": 9062,
      "Ġtooth": 9063,
      "bet": 9064,
      "ĠExam": 9065,
      "Ġengines": 9066,
      "Ġadequate": 9067,
      "Ġsynd": 9068,
      "Ġdisplayed": 9069,
      "oli": 9070,
      "uten": 9071,
      "sylv": 9072,
      "ĠPur": 9073,
      "Ġscenario": 9074,
      "Ġradical": 9075,
      "ailed": 9076,
      "Ġopens": 9077,
      "Ġacquire": 9078,
      "apse": 9079,
      "cker": 9080,
      "Ġracing": 9081,
      "RL": 9082,
      "Reg": 9083,
      "yes": 9084,
      "Ġexpense": 9085,
      "ipes": 9086,
      "Ġfits": 9087,
      "Ġcontinuous": 9088,
      "Ġsevent": 9089,
      "cience": 9090,
      "lar": 9091,
      "acles": 9092,
      "Ġphysically": 9093,
      "Ġwireless": 9094,
      "Ġholes": 9095,
      "Ġpilot": 9096,
      "CL": 9097,
      "ĠSwed": 9098,
      "Ġbasketball": 9099,
      "Ġresort": 9100,
      "Ġmask": 9101,
      "ustration": 9102,
      "Ġleather": 9103,
      "fa": 9104,
      "Ġbacteria": 9105,
      "anguage": 9106,
      "ĠRepublicans": 9107,
      "Ġlayers": 9108,
      "ĠMethod": 9109,
      "Ġscar": 9110,
      "Ġwhis": 9111,
      "Rem": 9112,
      "ĠNic": 9113,
      "Ġgard": 9114,
      "Ġ120": 9115,
      "Ġpetition": 9116,
      "una": 9117,
      "Ġcalendar": 9118,
      "Ġdrives": 9119,
      "Ġequipped": 9120,
      "ĠFIG": 9121,
      "Ġlake": 9122,
      "ĠIllinois": 9123,
      "ĠSales": 9124,
      "olds": 9125,
      "cr": 9126,
      "Ġfrequent": 9127,
      "Ġspray": 9128,
      "ĠLy": 9129,
      "Whe": 9130,
      "site": 9131,
      "Ġchecked": 9132,
      "heim": 9133,
      "Ġobjectives": 9134,
      "inth": 9135,
      "ĠNick": 9136,
      "lined": 9137,
      "nesota": 9138,
      "ĠMobile": 9139,
      "ĠProper": 9140,
      "Ġdisaster": 9141,
      "ĠStore": 9142,
      "Ġbanking": 9143,
      "ĠRequ": 9144,
      "ologists": 9145,
      "hour": 9146,
      "ĠTony": 9147,
      "ĠNatural": 9148,
      "Ġorganis": 9149,
      "Ġanger": 9150,
      "2013": 9151,
      "hyth": 9152,
      "Ġfocuses": 9153,
      "Ġsinging": 9154,
      "Ġenthusi": 9155,
      "Ġmeaningful": 9156,
      "itarian": 9157,
      "98": 9158,
      "Ġgig": 9159,
      "ĠNO": 9160,
      "iro": 9161,
      "oir": 9162,
      "Ġlean": 9163,
      "ĠImm": 9164,
      "Note": 9165,
      "ieve": 9166,
      "Ġassembly": 9167,
      "Ġkil": 9168,
      "ĠIslamic": 9169,
      "Ġsupplements": 9170,
      "Ġmountains": 9171,
      "Ġweapon": 9172,
      "ĠSmart": 9173,
      "icked": 9174,
      "adelphia": 9175,
      "ften": 9176,
      "Ġhappiness": 9177,
      "Ġembod": 9178,
      "omed": 9179,
      "ĠFa": 9180,
      "Ġdrama": 9181,
      "ĠFun": 9182,
      "Ġspecialist": 9183,
      "throp": 9184,
      "Ġaccompan": 9185,
      "Ġinch": 9186,
      "Ġhanging": 9187,
      "Ġtong": 9188,
      "Ġfed": 9189,
      "Ġinitiatives": 9190,
      "Ġwhilst": 9191,
      "Ġeliminate": 9192,
      "Ġresid": 9193,
      "Ġdebut": 9194,
      "Thanks": 9195,
      "Ġcorn": 9196,
      "esis": 9197,
      "Ġbreaks": 9198,
      "unter": 9199,
      "Two": 9200,
      "Ġpreced": 9201,
      "Ġlowest": 9202,
      "ĠUr": 9203,
      "Ġflaw": 9204,
      "ounce": 9205,
      "Ġburden": 9206,
      "ĠEngineering": 9207,
      "ĠBrian": 9208,
      "etts": 9209,
      "72": 9210,
      "sylvania": 9211,
      "51": 9212,
      "Ġcorrel": 9213,
      "Ġagenda": 9214,
      "ĠLearning": 9215,
      "Ġladies": 9216,
      "ĠPers": 9217,
      "Ġlawyers": 9218,
      "Ġsolo": 9219,
      "ĠContent": 9220,
      "aters": 9221,
      "def": 9222,
      "Ġtries": 9223,
      "ĠColumbia": 9224,
      "ĠFall": 9225,
      "ko": 9226,
      "Ġdamages": 9227,
      "riculum": 9228,
      "pire": 9229,
      "ĠEX": 9230,
      "Rep": 9231,
      "Ġ($": 9232,
      "Ġabund": 9233,
      "urches": 9234,
      "ĠGM": 9235,
      "Ġexperiencing": 9236,
      "Su": 9237,
      "Äģ": 9238,
      "Ġarrival": 9239,
      "Free": 9240,
      "Ġactors": 9241,
      "Ġunlikely": 9242,
      "Ġtournament": 9243,
      "Ġsimultane": 9244,
      "ĠVegas": 9245,
      "Ġduties": 9246,
      "acon": 9247,
      "uty": 9248,
      "cor": 9249,
      "aza": 9250,
      "Ġdefensive": 9251,
      "proof": 9252,
      "73": 9253,
      "Ġplaintiff": 9254,
      "Ġrespective": 9255,
      "RC": 9256,
      "ĠProtection": 9257,
      "cut": 9258,
      "Ġcomposition": 9259,
      "Ġparagraph": 9260,
      "ĠHo": 9261,
[...]
